/**
  ******************************************************************************
  * @file    network_data_params.c
  * @author  AST Embedded Analytics Research Platform
  * @date    2025-04-08T11:23:28+0800
  * @brief   AI Tool Automatic Code Generator for Embedded NN computing
  ******************************************************************************
  * Copyright (c) 2025 STMicroelectronics.
  * All rights reserved.
  *
  * This software is licensed under terms that can be found in the LICENSE file
  * in the root directory of this software component.
  * If no LICENSE file comes with this software, it is provided AS-IS.
  ******************************************************************************
  */

#include "network_data_params.h"


/**  Activations Section  ****************************************************/
ai_handle g_network_activations_table[1 + 2] = {
  AI_HANDLE_PTR(AI_MAGIC_MARKER),
  AI_HANDLE_PTR(NULL),
  AI_HANDLE_PTR(AI_MAGIC_MARKER),
};




/**  Weights Section  ********************************************************/
AI_ALIGNED(32)
const ai_u64 s_network_weights_array_u64[28766] = {
  0x9ffda00acfddb8adU, 0x9bea8abba4ab300bU, 0x9d18b0e6e2e6edb1U, 0xb1f8b40df323dccbU,
  0x35cd811593e2a521U, 0xd92b90d7f3a4b3f0U, 0xafae2fb7bfb3b0b1U, 0x871715cfe5e0c72bU,
  0x18d9582e8601299bU, 0xe7dcb4149cce8033U, 0x3caae09ab9f80cc6U, 0x3f0296f3ee07c8b5U,
  0x1feb98ca1bc7c9a6U, 0xc79df1e536a7b4d9U, 0x2a08950c1b92f5f9U, 0xd58cb9bbe0c92eaeU,
  0x8fa691b89e95949dU, 0x96989399939be6acU, 0x91ab91a29997ac9aU, 0x91cd97a59fa2a296U,
  0xd19893aa94ab95b0U, 0xa60595969c9594afU, 0x959ae494979c9795U, 0x91aab499b3a698bfU,
  0xd0967fce97b5b995U, 0x9d9896b39ba38cc4U, 0x19f9f8d9a9da993U, 0xa18ba0a49e9d9bU,
  0xacae9d98b6999993U, 0x9992a0a9c99497b4U, 0xd1a492a5b98faba2U, 0xa68c9996b699bf93U,
  0xafc7d3f5d9e6c6e8U, 0xd1d8e9defed2d9b3U, 0xf300cee7e6d0dce8U, 0xddd1fcd5dee5e7f9U,
  0xcdf1c7c8ddc6ebdcU, 0x80dec1a8ebd2dad3U, 0xd3ebe6dde0e09ad2U, 0xd693f2d7b7d7e2c3U,
  0xc8c45307ddfdfd69U, 0x66cb2d50e556e2c9U, 0x160d3b483edd38dcU, 0xfbce174f4cfff50dU,
  0xddf8dc060fcee8d8U, 0xa5ca75da0f202dd9U, 0xe70adbf10510b647U, 0x5ab33e3dc07f013dU,
  0xefcbeadd0fcbf806U, 0xeacafcabbbcc06f0U, 0xf680d80cebadefe3U, 0xe6f7f5c5cd95d4fcU,
  0x38092bfe5c4bf05cU, 0x3c3e332518220f13U, 0xb487f20351ffe12U, 0x2a4419e63837fa58U,
  0xd28130419610669dU, 0xa26717ff2561e65U, 0x3f151a41c677c7c4U, 0xb345421c817f0261U,
  0x580162102738f38eU, 0x7086ec106625c7fU, 0x3735ef06c881f27aU, 0xcf3b6c7fae759e47U,
  0x895181e2da736500U, 0x6ca0647f6cf5d366U, 0xf34ef709819c1b1aU, 0x5ffd1263d2811df9U,
  0x66730bf14e5564f7U, 0xae15926cb47f2876U, 0xc704817f46c3d155U, 0x9e5d0cd79ad38133U,
  0xcfa2581b917b648U, 0x2e2d1811fd29c64U, 0x1adaf2d4cd387f4eU, 0x2652a5df1dae89e1U,
  0xd38f6c65d15f9581U, 0x365c3903357fe4c9U, 0x338157c88177aafeU, 0x7f1d5506d89096f3U,
  0x504c7301ef628d22U, 0xe864c87fbba6f108U, 0x7fdb2fb1f41b8be0U, 0x2ae77fdcf7464e8aU,
  0x479c56d1c0f0a6bbU, 0xaf64da26ecb8547fU, 0x1a862b813773dc7fU, 0x97ce81df5b0e1c67U,
  0xb80bd55751668f78U, 0x5cc56567810266dbU, 0x40770be13be6dd7fU, 0xa5e27f5c232bee9bU,
  0xffffffd6fffffd3fU, 0xfffffdf3000000b6U, 0xd9ffffff6dU, 0xbd000000a3U,
  0xffffff34fffffcb6U, 0x1140000013fU, 0xffffffcd00000341U, 0xc90000028cU,
  0x6100000068U, 0xffffffe7000002a5U, 0xfcfffffe79U, 0xffffffe6000005fbU,
  0x192ffffffe3U, 0x1c700000412U, 0xf00000332U, 0x3cfffffe59U,
  0xc7f1d74216eb58d1U, 0x7eeb1a911c3f430U, 0xf30641e848298432U, 0x4c1cd99505139702U,
  0xd4aef80bab1841ffU, 0x3ea19e01e738de02U, 0x1bf80e0357180433U, 0xb8ef921c0ba8b0d3U,
  0xdcd156d4181f11c4U, 0xe8373f350fd0df23U, 0x5152d720b0e499f9U, 0x120e09c2fce43918U,
  0x32708380fdead09U, 0x3ea7c7dd1d0a12bbU, 0x8743b637af45b0cbU, 0xc1221881f3d1bd1fU,
  0x3da122b4e6c614e5U, 0xd90d410c08b01bdaU, 0xe7b63b4a08121ca8U, 0x133b15a035f3bfbdU,
  0x9dd5ef00cbc420d5U, 0xd3cf25ca31f42b1fU, 0x36c6e117fedccacdU, 0x5eadbfa597c8e4b8U,
  0xcc0ffd811dfe2cfU, 0xc93a63c5ecbdb561U, 0xe5d71439c141052bU, 0xcb0145bcbc2dc75cU,
  0x15dee94235242911U, 0x1bed300b39ef24bfU, 0xe2a4b7d502f900e1U, 0xbc0a2114ae2fac0aU,
  0xfb3112c2addbe662U, 0x26c9b2e6010ae356U, 0x12d009c0e0438f2bU, 0x2fc10f33e6f13ddaU,
  0x77b5dcc6aea747f1U, 0x175db863f3b4d91bU, 0xd333ecb66752ad13U, 0xe447e0f536e0aebcU,
  0xeaf857d20ef90259U, 0xd6ee2618b58eea0bU, 0xf5001d300f53c2efU, 0xe34d12c89d4a5552U,
  0xf84ff4941b8bb9c5U, 0xcadcdafbdb2c2900U, 0x13b9ee3d10522a50U, 0xe7c5f29eb1f19c1fU,
  0xd415ad9ddf45ce7dU, 0x49f62932affde63dU, 0x524d110f28173dc6U, 0xead4200c4a5ff310U,
  0xc43cefa6ae164ba9U, 0xbd50a31336dbecf3U, 0xc9b1ece049a3f24eU, 0xd8a859fc00d717d7U,
  0xd11d1b2227bbc5c1U, 0x3df6c44acb1f3ed2U, 0x6dd2f53bbed2e59dU, 0xadc36de6d96c170fU,
  0xf1f320d3e41d1951U, 0xcf37eff614023737U, 0xd63bc57aab7fdc2fU, 0xd1472b10a3d9252aU,
  0xd20dcf9e67f9abe6U, 0xe2dcec2301d22429U, 0x4041340ca17f4121U, 0xda050a3f1d073410U,
  0xdf2de012c6253d53U, 0xeed02cd3a5fc2109U, 0x10b5fc8f4a15312dU, 0xb4ae938e7eeb109U,
  0x26a32b0425361a2aU, 0xaeaf210e7530ae6U, 0x370bd642fcf5f5d7U, 0xbf8b5f1f933b5U,
  0x42e1a1a720cb4637U, 0xd4d5b41ded01f527U, 0x43c85fb20d3bde9cU, 0xdb44ebb414b0ff3cU,
  0x1143bc40c50fc309U, 0xea488b23f0d6cf0eU, 0xb921bce13a25dd11U, 0x71417aef1c3ee44U,
  0xbdeaeeac728afdaU, 0x39dc043a05b82833U, 0x10c5002828c7cd9eU, 0x14b0fa42c34323bfU,
  0x4aa70cbbd6fa0de4U, 0x6772d832a7ada9d7U, 0xeae9fa1851cddd09U, 0x36fa12be9ceddce5U,
  0xd2c8cf11d6cc4328U, 0x280641df430f3ef7U, 0x13e01ed6f12b10beU, 0x474302252541f1f8U,
  0xe304c2d55496248U, 0xe8bec3ebfd1345d9U, 0x22faad3633f152e2U, 0xf52834fde6cb55d5U,
  0x56e63f41c9e23c7fU, 0x20322d143434d8f7U, 0x3ec5f12e2731c7c4U, 0x213bef2f25f24519U,
  0x569758ffdfd93de4U, 0x16ffcc05201a0322U, 0xea1f0ec53bb3d7e5U, 0x699dc0fe0535dfb5U,
  0x45f43c7249f36bc8U, 0xa01199dfc81abb10U, 0xcba02309d04117f0U, 0x1d2c9bab1ae21f04U,
  0xcc583c5cae3342c2U, 0x17bbe127e406d663U, 0x18e7bccfd9e7bf47U, 0x41213cfdd4bcf021U,
  0xb52d3a1dd1cfe2e0U, 0x3efc4e1427a04302U, 0x60ee5964570ca940U, 0x22d0f137a0dfbe28U,
  0x7ccb0d5102251d1eU, 0xcd30d93ac8eb18aeU, 0xbbf7416b0229efe2U, 0xe71d11bc2b35ffc7U,
  0xe5d2bc39dc1b06feU, 0x5ca630b6c1b23b08U, 0xe0aec4187943cfcfU, 0x17a5d14f00e9fc35U,
  0x47e7bd2acd13ae75U, 0xdd00deacaf34970eU, 0xce99a6ecdc11cdbaU, 0xec04ee0dd98506c0U,
  0x67d0dca87e16afc2U, 0x20177f29e5131a9fU, 0xdd0f0a7fbfe97b48U, 0xa037454efd00e732U,
  0x5ce6241df8223b35U, 0x5db31dd2b16058d7U, 0x1633e6013b463aeeU, 0xf714d13bc2ec2fc2U,
  0x9d18b01218ca443dU, 0xfc45265923f252b2U, 0x7afdbfb481d50d2bU, 0x22edee22366f082fU,
  0xf946eba6af3e09cbU, 0x1acce72ff3584738U, 0x2c05cd2c23f43e98U, 0x1af3d85ac1cf4a0eU,
  0x5c9050dcc4e10f9U, 0xa3e2ad44ae4b5339U, 0x1bc0ffb1fceedd8dU, 0xa105c2413110ff4U,
  0xedab8107f134fef0U, 0xecac212f0037c1efU, 0x5a34d72d1b0bc3dfU, 0xefa1d7cace1c4c0dU,
  0x1a246b5d15b8159bU, 0x270c9313e2c2deU, 0x312841f3434fb358U, 0xf0cc8d9ecbaecbc9U,
  0xcbd059310b0c0925U, 0xc21ccdd409e801fbU, 0x3e48f2232ad4d72eU, 0xef53aec3e5c9f3efU,
  0xf636fd08be2bd526U, 0x38f7b9aa57a6cbe5U, 0xda18d7bacf3fae68U, 0x51c32befb9d702dfU,
  0xd074026fac7fcc6U, 0xf8b720e9602b0470U, 0x2812cdf7edaf398eU, 0x1da4f6d2e0c22f06U,
  0xf6d503760fbe034bU, 0xb191f8f94c06b130U, 0xf71713f83eaa2894U, 0xcec5e01050f3273bU,
  0x4a30dc2feb672af8U, 0x4c18ed4000e9b443U, 0x8b1252bd6fcbfa6U, 0xe4e1f712f6b5e93eU,
  0x9cf5cfbfb02735f4U, 0xf81117e262eeae13U, 0x95f725ccbe11819eU, 0xd9db1cd0c935aea3U,
  0xcc542d28cd6d34d4U, 0x1221c099c505e750U, 0xdf56ad09b2eaeef5U, 0xf729ce193ae3d2f2U,
  0x3a20d9f3fe56d028U, 0x99e1ebadd1a1de18U, 0x19401ffacea71f23U, 0x320be0bc5a7bcb1U,
  0xe82832320606ff28U, 0x10cca10d23e1758U, 0xe1e438c5e1c8e762U, 0xc325acf9c9871ee6U,
  0xcc121dc7faf41421U, 0xe834cbf405d4353fU, 0xa7be5910022e8944U, 0xc9d921f6aa392ea2U,
  0x334521431fb5daefU, 0xc206b3be64e609c7U, 0x1214bf60951a62cU, 0x3ac1d62d3322f3f5U,
  0xdc1f98fef7b2a61fU, 0x35b073debf725b4U, 0xc112eee5f0e3f9fcU, 0x97439fede7d2a59cU,
  0x264712973eeacbd8U, 0x2dcac5d2fa3feeb5U, 0x143100152b321718U, 0xed182bbeb7acb1a2U,
  0xb04f08a030f512acU, 0xfedff94cfdbec617U, 0xf53e229fc000f9a7U, 0x33fbdd1345f1d8ebU,
  0x2d2f331739eeee16U, 0xe62e2ed2e768471cU, 0xf1ca0cb5ee2f15b0U, 0xf50044d971e1e821U,
  0x160a36c0301c45f0U, 0x9c3937c5dd3c2814U, 0x2ceaeed8fb2237bdU, 0xcf4cc5da4f1b35f3U,
  0xe7661abae63cde3aU, 0xcac43e21fbb2aa32U, 0xc411d6223d3435c9U, 0xddcfa9bd3aff20b7U,
  0x29f5f6b7572df4deU, 0xd326f5d5c708ea3fU, 0x3471bbbe20d3f2bU, 0xf020050aec4420fbU,
  0xa2930e8ccd6dff2U, 0xc51626f9ee25e94cU, 0xaac8ebca3b02cb05U, 0xc1f13716c69fb114U,
  0x33e219f1b3b3406aU, 0x192af64b0f1601e5U, 0xf1ee21e05cee2735U, 0xff34182ccd35cfc7U,
  0x44d49edf65b33a5U, 0xf130e9c212f04708U, 0x391ff97828cef503U, 0xd41108df192c4a1dU,
  0x260c34a0e8d7ee6eU, 0x5de7324af6cf04caU, 0x1435d15de5fc6fc0U, 0x10c81144321b4d4eU,
  0xdc3d2a143bef61cU, 0xf1503cd6a2edda81U, 0x1af32a4d161cde31U, 0x9b031659e0eedce6U,
  0x1516342907f95bceU, 0x35cdf1b3393a612fU, 0x512dfa5aec35029bU, 0x29ca5b3436fdc7ebU,
  0xbfb1cfb6efeeaa3eU, 0xcbd2b10b363fd6b8U, 0x54b60fd1effbad4dU, 0xf92cc4d517f3f731U,
  0x7434cdc365274b06U, 0xa3aff5ca1d39b5adU, 0xf33e2e251c4b7627U, 0xba2eade9e4ca9eeeU,
  0xa71454373032bdf9U, 0x166ccd49baf737e8U, 0x490344c847f342aeU, 0x4b0cdfcc4eda4222U,
  0x1e2aafe22a231b28U, 0xf129bc6318cad6d3U, 0xcd16366114cb043bU, 0x561baa3f22bc1434U,
  0xe027b7ae2519382aU, 0x56ff621217bc5104U, 0x55ad67cf1feb9d9U, 0xb6e115bbe597b441U,
  0xf5e0d70725bc2216U, 0xcec6af26453244b0U, 0xa62f0536039cde1aU, 0x51701bdcf1a8d111U,
  0xbe574c2078f3b549U, 0x5c23717e2afbf7c8U, 0xebe1be26d33108caU, 0x784c25a311e09ddU,
  0xeed8fa46af2f5536U, 0x42be36371b63b236U, 0x1bc9e409f44a4de2U, 0xd100ebd7f67f871U,
  0xce43c8f1e942e446U, 0xe2dff9ff09ef0ed6U, 0xd101540da5c56a25U, 0xc9f2e774c1fd3137U,
  0xcc3d2c2b2834b16bU, 0x31982e5fdd04df0cU, 0x9e23d4f611b824d7U, 0x2b283345d6605c4cU,
  0x15372928ea4dfc1eU, 0x129f46142f4bbf3fU, 0x26cdc3a31b0749e7U, 0x470c0508de5bfc19U,
  0xe41706a69fbe3fecU, 0xcb5c84c53c3b2c2U, 0xed1b119f3dfbe82bU, 0x1f5d9f8e361d98c4U,
  0x4d36dcfe911ab921U, 0x880daed6ef44fa11U, 0x1f2426631cdae29fU, 0x2d0527f6c90647fbU,
  0xfadbade7101e3dddU, 0xc81d35a8dfc82b4cU, 0xa541be20f611bfb7U, 0xe89ebc1ed608fd31U,
  0x767f24c536bc4612U, 0xe7dd180a06dd52f0U, 0x5beddb5d9b6b0eceU, 0x99b717a1515c0e2aU,
  0xf7d3a3de420cc911U, 0x38430669c45cdf5bU, 0xcc6be7b50c5b4c41U, 0x4763ad6468da0d56U,
  0x3944e60402ee9e05U, 0x66f9c4c0bacc50f7U, 0x346ef63a43f0ed11U, 0x751e304bc6250af0U,
  0xc8cbc4331ec24039U, 0xe0e1d608b1d5543bU, 0x1dfc1ae9eb1c2720U, 0x13b010e12140b93bU,
  0x4998ef1416b2c06eU, 0x414af2eb8d62c5eU, 0xedbf433be1483d3eU, 0xae3cbb2d2e04b547U,
  0xb2c853e8cf5511a3U, 0x4657f73b0325bcf3U, 0xcc26360cdaf92a55U, 0x38532dcb44df41b2U,
  0x2b9af9ed2ea54cb6U, 0x70d2e4f6ec41c64eU, 0x37444b09d90556cbU, 0x49a8216ff0526928U,
  0xe0dcbfcfe8bff04aU, 0xc105b4caea6f12d5U, 0xabf3e40ccbc5e0c4U, 0x162244427ba7c314U,
  0x45f2e45c1324ad5eU, 0xc4d5c115654b05fcU, 0x41b7d6000ff4c615U, 0x507f140d4e5c236U,
  0xfc17d93f4443e621U, 0x1b2fcf7fe24a230bU, 0xbeb0f12abed1df2bU, 0xccde2bce1f0df233U,
  0x35743261ee04ac1U, 0xadbbd7c9a7dad3e8U, 0xdde0a21127bb0b08U, 0x1d3258cce018ff3bU,
  0xee90ef6e6a6fcabU, 0x2f59dfc1c7f92bf0U, 0xaf393f0339213e0fU, 0xcfc7d89c37c9b14cU,
  0x4d959b06da8f0ebdU, 0x2cf9badef4e513d4U, 0x4c25ca0f39b64da9U, 0xf3e8c53400f9fb39U,
  0xb3c02dcdc5cef963U, 0x620ac84ed114dcb2U, 0x10a59e13f9b7c8e6U, 0x85f1d04d221c4dc2U,
  0x42c719883dc9f690U, 0xe23bf71c02e2ecb4U, 0xcbe21cffffc407fbU, 0xafb9f14d34cc5fe0U,
  0x4817c406c7d1ffedU, 0xf4e600ce280a1dd2U, 0x66c5303e04e22098U, 0x46b6c8431a3cd609U,
  0x1ae4cd30161f3519U, 0xd7b6b6c0414324a8U, 0xbce4707aef2d998U, 0x3226ecf0d2cbe14U,
  0xd4d0ed4d03f3d94dU, 0xfebffed7d3bbf906U, 0xca2b3d4bba17c3d0U, 0xbf38d9c641ab2536U,
  0x363febeafae73fd7U, 0x3c4bc3e04dd3847U, 0x12c74bdce14c1e43U, 0x3ff81a47cbf730b0U,
  0x12dbec5434ce2cacU, 0x1bf92ee905171124U, 0x2ce6ba9ee4ae390dU, 0x62e5d44c500843daU,
  0x739ee7fedb96b00U, 0xfc8cc0baf8130c10U, 0xbc04243f3a23ba59U, 0xd9a8ffdceafdc6e5U,
  0xefec110d35d7af02U, 0x54940cbcd24c8e4U, 0xfb03ea414124e5f6U, 0xe23c2639bb1bc3f4U,
  0xfae410fc18c23430U, 0x50f03ea1dbe005b7U, 0x21f3d73a06012be2U, 0xa0fb01a88f7be27U,
  0x33d3f5a822281043U, 0x4ceef6add90ab4c6U, 0xebc5d4170946ee07U, 0x97c5c0f0ceb0b91cU,
  0xe052004ba2744e9U, 0x1c273b1d3b2ac8caU, 0x2403edc8ebfbe534U, 0x3d1904e650400f49U,
  0xf8151bc60b14402bU, 0xd6c4da36252a4a42U, 0x760ffd00d0c123b2U, 0xc8a91b5b4610f516U,
  0xe3bc14021815df1bU, 0xd0e304f5ddece4d3U, 0x4da2d7f613163f01U, 0xcf5d36ccb2ef134U,
  0x3dd4441fcfb406b3U, 0x2c073edfdd0dbe81U, 0xefca2ef448be23f2U, 0x8d000f2a10b34e1bU,
  0xea6d915f1c51d1cU, 0x26f243f4bdc8e81bU, 0x7362613b7dc293aU, 0xa65dde01b7fca633U,
  0x13b62df64fc935f2U, 0xddfaec28d4d246ceU, 0xb23448ce0904eae0U, 0xcf3ddde7cce1342aU,
  0x15c63ec6a6ccd9e6U, 0x559f4615f815e5c4U, 0xa0a3ce3d08cd63cbU, 0xaf2624083632c61bU,
  0xe40fe70e07ccb8b2U, 0xc848c5eda73b441bU, 0x2c810f4301e8d697U, 0xed3c30d8da98f4dbU,
  0x1dba23e6deb3e21aU, 0x1d3d3f81f81f0fd9U, 0xbb15e65516bb21aeU, 0xf49f05aa28079c9cU,
  0xbcf61eca06d625ecU, 0x20ed4126aabdd1d0U, 0xee48082dedcf2ed3U, 0xf4b6d50f15f9d028U,
  0x42c321d0e930b39U, 0x2da1113d89eed00bU, 0xe0fed1449e1a52b9U, 0xc6d4eb2799f243aaU,
  0xa724af2f76bbbc27U, 0xe409e937d0b25cecU, 0x140ff616c73e1712U, 0x1fe7e1f685b6dc57U,
  0x5ee0203a322a45dfU, 0xbb35b8b9df55c747U, 0x169bb8410049d6d1U, 0x6f17e43fcb001ffcU,
  0x7100b4d2bf324f0cU, 0x13b32015fb2a63dfU, 0xd2dbf3c053efcdbfU, 0x28481a01fc5c06ecU,
  0x8360ef461db31c4U, 0xf33f74e4baf64ffbU, 0xc51dedec0d2cda2aU, 0x14bab4c791440ca8U,
  0xef8ce2fd02811f0dU, 0x3c0463ffdede1fc4U, 0xcdb7ed0adb1d3231U, 0xf7fbcebeabbefdb6U,
  0x25c106d63090d1d4U, 0xe5140efafd9f18a9U, 0xba14040811c9da0eU, 0xae03d2d7e20df1f8U,
  0xfb1d031bf7fd1af7U, 0xf9fe51fe01fc30adU, 0x3f072918039324e0U, 0xbcbbc1032d27c90dU,
  0x1c082314622fa9d6U, 0x2205d5dabe2739caU, 0x51b6dff0f1c610b3U, 0xdb2418f5fd052b24U,
  0x9ddc2e45013f326U, 0x40a5ec08b4c5ca8fU, 0x7eba750a6bdfda8U, 0x2eac5beddffc833U,
  0xe9c626deed021decU, 0xf1d8450ae4e4d10cU, 0xddba33efc9f6283fU, 0xeef7d7f005fce345U,
  0x2cd8402b1540fbf0U, 0x5934392b163e35f9U, 0x130aa93a1ce1e3c5U, 0x5216d021f3e8f314U,
  0xceec090d472afd3fU, 0xf73ce8e1cfd53219U, 0x102810e313b8df1bU, 0x4040b2f29ded929U,
  0xe43ab29ced382be3U, 0xc8421b32b2fee6bbU, 0xd20b1838ba0ceeddU, 0x41f3d446e9e42f10U,
  0xdd16bd54e8e300cU, 0x4961fe34c008d627U, 0x4361352554bfeaf7U, 0xafc030c3b7ca26ddU,
  0xdca44d17f3c1a017U, 0x3decf04f013aee1fU, 0xcbf5d6623237c867U, 0x2cc8ea5f2d9fd915U,
  0x4e2f4a37ecd7fe3dU, 0xc5795ff6dd100f0dU, 0xe834292b3acf5804U, 0x1ffce92893993a07U,
  0x60e08f645dcf52dU, 0x98f3475142073b98U, 0xf6b812c8260c18a2U, 0x200870c0dceb650bU,
  0x18003e47e629bbd8U, 0xe5f04813f5db2067U, 0x5eac0456030f0dbfU, 0xd2280a7fecef2aedU,
  0x15a35ebceedc30fU, 0xbb13d6bf48f3fa57U, 0x2c5628cec50ceeafU, 0x28b95d280a0847a6U,
  0x205325c7bcb8b79eU, 0x65ba32c629c15724U, 0xc4efe75a0ff32417U, 0xc0e5d90fd6d8d1deU,
  0x412bc1eaded2fea4U, 0xcc551e5f2cb90daeU, 0xd0f3deeaaf47e63bU, 0x32632bd0a1bbea46U,
  0xfc09bdd610c9f7fbU, 0xd76cf8caca29cb3cU, 0xfd670242400f133U, 0x59cbddf629ad19f7U,
  0x3a6610c4fb4ebf10U, 0x2df35171cf53ebdU, 0xf0ec473be7c8c228U, 0xe44a1fc03e1d6ecU,
  0xd44cd4f69fbbcee9U, 0xcdf2c0dde23b3a07U, 0x9e373610203b1de0U, 0xccdcfaa2b533cec6U,
  0x1103fc30b913020eU, 0x14c2ebedbef006e2U, 0xf5aa0eec23bcc8c6U, 0xa3e7e5efaa42d62aU,
  0xcb40cfbd11b2a13aU, 0xe368783afe2c09dcU, 0x2d0ce03f0a190cf5U, 0xd927fc2f0bf3d9bdU,
  0x43bad6ed29b7c5eeU, 0x2f01222511cbfd8cU, 0x23df122ed116fbefU, 0xc942092428ce27c4U,
  0x16a43ca964e42fdeU, 0x312c3c4207c2df81U, 0x95230e4c5d4e4f3U, 0xeb0eaf07d73d35b7U,
  0xe91801a7ff2d3b39U, 0xbdf66eb4f907f739U, 0xe5e9efd9e8dc4e26U, 0xe0c4d4f2cf11f60fU,
  0x7a4e50a36250a1dU, 0xc4e22b2e15dbfaf3U, 0x93caaf47178fff30U, 0xb8240fcef71a10daU,
  0x1c400bf1dad20b40U, 0x29f33a1e97b9d1ddU, 0xc11ecb15da0f4c22U, 0x9eb1ba1857fcc0b9U,
  0xa6e7df40c7fbd740U, 0xe9e492bb3e50b8ebU, 0x7e115033acb8dfeU, 0x11e9f8d2b5f99840U,
  0x24ac3647e03c2341U, 0xb0b8082013b1f8d3U, 0xb6db1ee75ec2be21U, 0xddcd30c64c1da5d0U,
  0x24105d5d64533b0aU, 0x3800f3ed0100b9dcU, 0xaf2f084fd2f2c6e3U, 0xf7c0ff1eb11ef63fU,
  0xfe24075546333dfaU, 0xddbf960b102ffdd5U, 0xe0db291fe406a9fcU, 0x7f0e40f6940a2d28U,
  0x250927a800dbd208U, 0x2e9e43362e30eb03U, 0x3ac721480ce840d3U, 0xfc689bf03df62a49U,
  0xfe38a436e6265b4cU, 0x18b99c310e524b6cU, 0xca942dffbfbbadbU, 0x38500a2c383238e8U,
  0xb701ec465130dbf6U, 0xf11bf517d8e2d7d2U, 0xdb66e811b0d603fdU, 0xdaf8d3baf926cbf0U,
  0x3abb3deaf52f02adU, 0x425424b7f5d20b10U, 0xa50407f2d213f7dbU, 0xf607cc38cf3e20d7U,
  0xbeaa20bd1425a9e7U, 0xf512357a7b7de22U, 0x8c4f1e270d213313U, 0xdefaec4fceaf5f1U,
  0xa252e51f1bde9a32U, 0xd7d4c008b8f3f61fU, 0xfa2174bef343c218U, 0x267f3306f5c6d3eaU,
  0x24f2430c39edbf2cU, 0x32dcd21e2944026U, 0xb9dc1dfb4254ce3cU, 0x4c64fcd3171d22beU,
  0x1f38d613b51056f0U, 0x142de23233a71bd5U, 0xcc5116e7f828cae4U, 0x463f1fb3c5d2ec54U,
  0x20e03a56074449efU, 0x9a959c2a38a3cb65U, 0xd539a733c4b90130U, 0x452816dadb19f111U,
  0x34bbf1f831f40decU, 0x26cebcc50eb3241fU, 0xf4ad5226dd69ac8U, 0x37f0f8e9b3cb158cU,
  0xfcefb1ff13483fcdU, 0x1121eb2fd52405e6U, 0xd9de14e4c145f220U, 0x2233c6ff44c2eaceU,
  0x3f0f2e0cc81afad0U, 0x2d14bd2724ced6b0U, 0x262219eeab24eceeU, 0xe7f5b8ffe5db29ccU,
  0xf322d6b1fc12fe11U, 0xfc16c34112cfebafU, 0xdaff2da5fb23e5efU, 0xb0cbc112e336aac8U,
  0x3524a52bed3bbd24U, 0xf6c6ca291d39cba8U, 0xdd49f6b2dd2ea2ccU, 0xe447d8da27c74949U,
  0xcfb63042eae341e8U, 0xa9a8e743d9b6aa76U, 0x38145733382834b6U, 0x71ffbd4f2f32eacU,
  0x22f4514453d9e613U, 0xa2cc0128fd03261cU, 0xe3d66808362927f5U, 0x484d0c0d4620c04eU,
  0xe80d7ff5ffda2deaU, 0x755f104e00a8a817U, 0x98b7f40efa5ff448U, 0xf9f9fc9b31359a13U,
  0x5999dfe729ada329U, 0xadfdeeb5d422fbe3U, 0x1a8340d3c6c01dccU, 0xcefd6638b444ffe5U,
  0xaee6e274c4eb320eU, 0x4db6aef530d2001eU, 0x1138d503f750beeaU, 0x47d6053fe61acfe5U,
  0xb8e0f33611dbf106U, 0xe9d151dc3cd0ea18U, 0x46bcfb452c13d6d9U, 0x2dd3cb5f702c5bb2U,
  0x4034c03cd401dbd1U, 0xbedfe4a80f01275dU, 0x43c3ce1727aa44f9U, 0x9ef8260609ce433aU,
  0x9f7db9a42d3c23fU, 0x4efb3166abf0db4eU, 0x40c7ea4c4d28260fU, 0xe9e5cfc23ef8f944U,
  0x3b4c204ef90d2fbcU, 0x8592d0fe116ea21U, 0xd03244bbc76d1cfdU, 0x4adb34bf37ef131dU,
  0xdd3439c4e1f52e22U, 0xe3ce52b3c4810dddU, 0xd6d0121d13f1542cU, 0xcfb305c4bec8bee5U,
  0xb2bef29362a06fbU, 0x20571cdadbcf412bU, 0x48c9b362c9c968eaU, 0x1f0de40108a7e9d9U,
  0xe0d5ea0f17f6e0f0U, 0x14e067301918cc27U, 0x420c9ef399263ba2U, 0xd2f422e3f7ddbcdbU,
  0x3ce3ce0910cbfb11U, 0x330f0abfb6291f9dU, 0xbfc92060ded21ee6U, 0xadfac7ea103237e2U,
  0x20becbe8d7b0a729U, 0x16144031ab2d22beU, 0x3e16c7c923054911U, 0xbea81ce6fedcce1bU,
  0xcbb329dd4dda1702U, 0xbf4307d3f7e3291bU, 0x3b0bfac33aaa19e5U, 0x2ac82bdde50918e4U,
  0x43bf341b2eff2e3dU, 0x27dc1bc0d6e33548U, 0x3d25b2c930d71939U, 0xe7cc15124040df18U,
  0x4b3a95d2c5d2ca35U, 0xd3dfc8123c19b910U, 0xee371b1eed04b4e9U, 0xc27bce93943c30bU,
  0xc0161ade2fc20df3U, 0xe5c7bb2ff519d9abU, 0xd3fbd7dfce380fU, 0x160ce1c8b5f9deeaU,
  0xa33cf8c845bbabe8U, 0xcb0b8fac2bf1cc03U, 0xd802dbe5f90bf9c9U, 0xde3e303eb714d71cU,
  0xf1e2483cd6d4df3dU, 0x3022e6e5161f5a27U, 0x4898ceb6ac180c07U, 0x503d2cc9f8f937f8U,
  0xf407d9b9140c4c3cU, 0x3e17a1ee32e814f3U, 0x28f1bdaed2201f1eU, 0x3ed3a13cb4031537U,
  0x17dfde450020ddddU, 0xc4d781bed337b825U, 0xddda113001ae0dU, 0x9e9f193642d1091fU,
  0xdbfdd7a4f1ccfdfdU, 0x22daaa05e82cf9b2U, 0x35ceac2dcadfa5d5U, 0xfed002e8fc29aa23U,
  0xe53bdaf8b1ef0d27U, 0xe0ae11401af22f31U, 0xcd9ae6f9dd00a908U, 0xc801d7ee1b0bceb9U,
  0x127e2f108fb9f23U, 0x3316161fb5f10dbbU, 0x9aded5ba2246af38U, 0xa4cf1cf3ab3c13eaU,
  0xcec13d9ea92ffd32U, 0x13b914b7f0e93ca8U, 0xc23fbe02e2cbaae7U, 0x1e9ed401a408d090U,
  0xdbf2d5dee2ef1bd6U, 0x47c0af0aabd1329dU, 0x3dda17143001bf17U, 0xfc532f2fbe7d61dU,
  0xc92ca912df31c411U, 0xcb12dc1ddececb4bU, 0x90a294ee2aa8e71dU, 0x403230e1570d38b5U,
  0xd81d03dbfa300de6U, 0xc950e53b7d4f74dU, 0xc5ab32fbc44a08dfU, 0x40ce3fc0b1b7dffcU,
  0xb3058721edcacc00U, 0xf3c9ca16edcd0529U, 0x10104c08e7c9518dU, 0x3910bb0afac22149U,
  0xdeb21e3ca7c83460U, 0xe76ce9cb11b4f501U, 0x9bfcf7ca136ce03fU, 0xf342f19e180b82d8U,
  0x8107e2a6b3e5e51cU, 0xb99a160438badf01U, 0x2c4537e2ae05d63fU, 0x47a5da9994a2ea12U,
  0x9eea13c8bc119cd1U, 0x3523edce2e26ae52U, 0x1e57e00d15af0da3U, 0x6d73f0b1b89c782U,
  0xa9aec2489c1f851U, 0x4a1c41ffa2cfbafaU, 0xb4f902ad0b0ced4eU, 0x916e7a5d1d8dac9U,
  0xfc10d3e307cde545U, 0x7fbf700fbf5c6daU, 0xc5881a0e4da82a01U, 0xee0ea8ac13dd0dc8U,
  0x1da625e903d9ce11U, 0x3bf0ba92db31d643U, 0xd42743c4ff19b0d3U, 0xd6bbb837b2ebc30eU,
  0x13981154ff94f85eU, 0x5b8c122e7340e211U, 0xb9931f3627ccd1e8U, 0x63af0bd7cb98c061U,
  0xaf1e13270cb9ca10U, 0x3bf6d01af3e0dbfaU, 0xbeb3e5a906be1f0bU, 0xcb1156a453eb10ebU,
  0xaff4b49dfad03243U, 0x1f05eae958ebe0d7U, 0x422845a6df84e0fbU, 0xb8e9af0af42c52b9U,
  0xefe125a539eb0bb3U, 0x751828ddb6cc62a4U, 0xf3a186bffb003fe4U, 0x2be2c25404de542eU,
  0x58e8addb365518feU, 0x30f922a0bc10981aU, 0xdc9d9ced26815d2fU, 0xeaadf5541b3dea00U,
  0x9b2c3aa2edaf914bU, 0x4fe51cf6b3fdfcccU, 0x23eacf3a9fa05dc8U, 0xbb15ab5be3b30206U,
  0xd44f13a211fc6d5U, 0x62e0ff1272d03068U, 0xe3ca492c45ed86b9U, 0xb3ac9bb3eea7d0dU,
  0xd21bba581c7ff4aaU, 0x11bfe6df7045d531U, 0xc454afae04b394fU, 0x563bf015b6ed1e39U,
  0x9753e231f07426c5U, 0x29ce36b559184dc6U, 0x4ece1241d995eb9eU, 0xe84244f8285f11abU,
  0x481cf722ec1d3ebeU, 0x4f3b00b94b263f46U, 0xbe0e24eff9365adeU, 0x1a23e209e2a0baedU,
  0xfbb4dfb9b2d7dcfcU, 0x1813cf303bcfe6b2U, 0x201053ddc06a29e7U, 0x42122a302ef90448U,
  0xb43cd243560f5ef3U, 0xec28f91ba945ddedU, 0x3d1a2af0f7dbfb1aU, 0xd4c81fef1b57ee4bU,
  0xde37a49e2ea19ad6U, 0xcfbccb32d4395dd9U, 0x2d17f307e7a32ebaU, 0xec361214cbb937b3U,
  0x20dac2fdfa8c4644U, 0x311becdef6e820eeU, 0xe625fc18de0117c5U, 0xfea6dae5e8b0c82cU,
  0x8c640b131e6d824U, 0x14ed430dfdbcb5e1U, 0xce0c45cacb383d7fU, 0xdfeb8e0690b618efU,
  0x35a3481ad5e711f5U, 0xb6f5ea0f19ccd4f9U, 0xdfc6eab432aa1616U, 0x4512e5ed503ab785U,
  0xbf52ed32fece1e3U, 0xc0cc0487b8e516e7U, 0x20c6e7371807ca55U, 0x3ac60b3b19e41f1bU,
  0x9fe996ea4fff40f7U, 0x968a06cbcffffc1fU, 0x6e00df5ab11ec1cU, 0x41c46d2c62f26dbcU,
  0x1e9dcdde3095c4eU, 0x26b3efa9591fc2caU, 0x20dced1f39b81722U, 0x17c7ae14f40dcdU,
  0x38ca4152214ca91bU, 0xd94985514018c20cU, 0xb9fae22030fd1a3dU, 0x3f51cf08d6bd3129U,
  0xeb2ad917f136c0eaU, 0xcbdad8c046f5e2feU, 0xaf404fbfc5fba751U, 0x29541b4e4337002fU,
  0x4d95c603cd2c4336U, 0x1a0d11e81bc4299dU, 0xd9a2f642ed1653f0U, 0xbc03cd2122ce5c18U,
  0x20cc36f835f5b40bU, 0x37d2d106f7c5ebd1U, 0xceffcfcdf0f10f26U, 0xe73dd621adc22d75U,
  0xbf97121705b1d241U, 0x13c421da1081fea1U, 0x1a03d007341eec41U, 0x1a0828b624badf35U,
  0xcb091fd447dea5U, 0xd6c4d9dc0d3353b2U, 0x45cc93f7f9f7eff7U, 0xbbee4337de26d10fU,
  0xf230cfcc243867f5U, 0x4a1633e0fe151720U, 0xee27c80bd5e624e0U, 0xd1332620e8013a47U,
  0xebd1f3e016e8c435U, 0x20a5c5d72127302aU, 0x6b0ac3473c0fe2cbU, 0xebcb2ae7f6b060a1U,
  0x90ef70bb81f1cb1U, 0x13012d071fc443cdU, 0x40cc01142ff44625U, 0x51e35fa35a8b60cU,
  0x41a453db0a87272aU, 0x23ca03d7045be3f6U, 0x2fb91cbe0838bc16U, 0xa5ecda2edb38ec31U,
  0xd996510ec59c250eU, 0x3c08d1fcbc11a3b6U, 0xf130cbbedb4dd1c7U, 0xbcbcdaadd129d8c5U,
  0xe2089f0882a2f13U, 0xf820bff20a72463aU, 0x2aa899ebeaa9522cU, 0xc2f142d11f3f43eeU,
  0x3fb5c71f22aee303U, 0x2b33fd22b9f60b06U, 0x1edbefc6c6d03634U, 0xa0daebe8e2467fe2U,
  0x34e2c3f3c5bde801U, 0x33d5ac34de530944U, 0x54c3970d3096c1d2U, 0x9802206a2a4e6350U,
  0xdab6e0ec68b12e07U, 0x36213157972e033cU, 0xda53ed65fa35181bU, 0x2b66e2dafec006cfU,
  0xc01efcb8622444b6U, 0xcd601bdcdc2491aU, 0xeed76d36c1ef4a48U, 0x4338e3f9c0e10a24U,
  0x16401ed8d61b14fcU, 0xa520c2cdfd2e83bU, 0x47f43e323b1024efU, 0xd7d5d7e44653e8daU,
  0xc142f6333d5047e2U, 0xe38923314851a7d6U, 0x9845f73463caf661U, 0xc4e7afbd09d2133bU,
  0xf474b431cecd72fdU, 0xb80ba80062004d59U, 0xad312c0df62954d5U, 0xf5092d500588a6a0U,
  0x4859c33d44377643U, 0x982fa95be687ae29U, 0x521b24c602deb95dU, 0xa68acfe8c51c629U,
  0xe2b25c3e34fbab2U, 0xded2ef5b4b1b1e9U, 0x1301ee1dc7d5531fU, 0xaf3dbb57dabe68c8U,
  0x6fed7c15fc2d84eU, 0xcb4f2d338d9fea45U, 0x15270906eb39da65U, 0x20edeefd1bdbeedcU,
  0x3f8b1eb11bd53463U, 0xb1d76889211d03b3U, 0xe314f11bc451d623U, 0x81e5970d2881b0a2U,
  0xe131a3168afef815U, 0xc70460d8e0de2b47U, 0x37cd91e7c45e5ce4U, 0x46e425fcf4030d34U,
  0x2f0798df123853b9U, 0x1e24fe0d2e574ae0U, 0x64fea10fc87f68aU, 0x2931dd0dfa5b192eU,
  0xfb4690f6cc331011U, 0x1a7c9e3c6d251c1U, 0x404fa7245111b3c2U, 0x9b2804e1e42fcd1aU,
  0xc1482e1c3336fc08U, 0xd5c0aeb80b4bb9eeU, 0x4366630ddbdb24cbU, 0xed2d09e126f3f19dU,
  0xf4caa84607d5d7feU, 0x41551636adb00f15U, 0xa9614ae2b629e301U, 0xe1620c3d40de953aU,
  0xc8283bb99dcba8a2U, 0xc02d2a2df31342b7U, 0xdaf8f9878f512af3U, 0x8704c1edd73dfb2cU,
  0x3c2e50e5ffccec48U, 0x90d73116fa3bb4dcU, 0xf8e985cf23ddf6e8U, 0xa7fea789a317bfd5U,
  0xef811cdb9aa0fe3bU, 0x27a2488cd9d40cd4U, 0xf502109c20dee2a3U, 0x826bffdb441a7c4U,
  0xf2db83e01ad5f34U, 0xd215d4ce00bebc6aU, 0x1308b1074ed5e53aU, 0x290e33d21ee5b8fcU,
  0xd4d3273fb852a00fU, 0xd1feb0d808063414U, 0x1f7c735cbc5f638U, 0xb3f20ac1b5092d9bU,
  0xf0b9351040b2cf10U, 0x9cb7f38102e7ecffU, 0x9ae7da43b986c9e4U, 0xc3d84929dfc40a2fU,
  0xc6ed37180035c5e5U, 0xa709e324c5ee1be5U, 0x1fe60d93dfc0b9eeU, 0x4c09d1f1fc4918e7U,
  0x31a53c041ecde7a3U, 0xe721ae10b7b5b931U, 0x14f4d7d3eaf09f3dU, 0xd2c3d817dc1ca210U,
  0xd535d70fc2d1c209U, 0x4902c5cb0dab09d2U, 0xbe11122da0cdf30cU, 0xf102f14c3dc2719U,
  0x31b1a5253ff32dacU, 0xe6d210df18a83325U, 0xb6ceacdf2030ef30U, 0xa1e5e8049f9eccf8U,
  0x29bdbc1605abd5eeU, 0xd8d03a310633e799U, 0x4c109bbd0381380dU, 0xb4f629f7e04e42f1U,
  0xeaf117faf4aacdcfU, 0x98d409fbf3d432f0U, 0x61bd5a83e821ce8U, 0xcdb5ed323d22d7ccU,
  0x13c03535e7ec253dU, 0xdcc1d81cc0fd31e3U, 0x17b5f642fd16f900U, 0xf396245449e53946U,
  0xb4ef23bfb8e3d135U, 0x99140045210d0dacU, 0x2cdcb52ba6494841U, 0xc6422de7beadb701U,
  0xe2d8304335cbccdbU, 0xedd454f9b3daef36U, 0xaeed37fabb1f203eU, 0xf14c17f5a0f4d2c6U,
  0x143cd92faaf8d4deU, 0xbc1ddb5050cda08U, 0xf22c19023eeb03e3U, 0x560f14b8f6a39a29U,
  0xbcb6b9f1391afc29U, 0xc03702f9d3dd0c11U, 0xdcdb3b3428eeda0dU, 0xaaeee6f11f2228c8U,
  0xcf2c068825a330d3U, 0xa3f9eab9fcc211eeU, 0x10dc9f0b9efdc3f0U, 0x201ec3ea2ed831a8U,
  0xcd00be817be2bbfbU, 0x1f355de7a2fdddefU, 0xf2f4bc1e90c019d7U, 0x11610f8b3272ac9U,
  0xb55a34f7fa23f315U, 0xf1d7bfdfede31b3dU, 0x2a0431db57b024e2U, 0x993ea18ebaacfc2dU,
  0x40bc3efcf9cddf38U, 0x10ac74a08c668U, 0x2b032cfce1f5d737U, 0x41e5f191ab11d305U,
  0xe0c6304efce0faf9U, 0x5dfc26e7cead1769U, 0x19b5c75d1111b114U, 0x50a5f428c3b60cfaU,
  0x9e24c88cff371de5U, 0x65f4535cc916df02U, 0x1ac1c707cf130e0bU, 0x2e26d419d722cfceU,
  0x339f182b362425ceU, 0x50fbe1e0eaab33edU, 0x46faddd7b021f329U, 0x12321a0ec96124eaU,
  0x36a02503648e1a2dU, 0xd00d46dd822e361aU, 0x3d59ec36a80c6a9fU, 0x32f43ff30e17fa01U,
  0x4f142521b68eafdcU, 0xebf7c0dc30cda197U, 0xe8112468d24dcc0fU, 0x1fbceb3bf2844c9eU,
  0x71e32b06405bf2bU, 0xfab2fec79dfcfaddU, 0x31b40e19e0b3ed2fU, 0x8dd1de03d6f4ebc3U,
  0x513454242d01e21aU, 0xef09e663382372a8U, 0xf25b99e0b115c05U, 0x60fe354a5d7449e8U,
  0xff839f9eb8c45759U, 0x11f34bab97c1d635U, 0xe5dece033c150329U, 0xd9a8b838cfdc4924U,
  0x632207fe579ed05aU, 0x48e761fa5a02220cU, 0xdbad2d062a4e730fU, 0x13d07b1eff465873U,
  0x65fc0dc79f0608bcU, 0xcc4940230597b520U, 0xe1ccdd2cfb427fd1U, 0xfc160747dd34f7dbU,
  0xb1bdb21da382de9U, 0x4053643fe7dd0a33U, 0xcdd85735ec44f034U, 0x29beeaba55359df3U,
  0x53b68d0a6c3db061U, 0xdc994d09f4e5f3faU, 0x39e9ceee05ac44e5U, 0xdaf7221f0b2a4ff1U,
  0xdbd939a31eac6eb5U, 0x2de97022e21c3a39U, 0xbc0ff3cc112b6f10U, 0x33f003f535b7ab16U,
  0x33cc2322bfce248U, 0xfd41ddc92a3c0ae2U, 0x13491424d82dc80fU, 0x354015f92131a20fU,
  0xaad7a9c3c2d7cc2dU, 0xa8c636ed7ff250fcU, 0xc55803f10126c3c3U, 0x411217e5dce81ad3U,
  0xc0c9eb29c4c33e29U, 0xd3f13848e1000f30U, 0xf2502fc5bb29a939U, 0x5dced0b2e7d9f21bU,
  0x3fbaae31b41cedf9U, 0xfbcdcc0e390bd22fU, 0x9c0f2db0cf1aff38U, 0xbc0abc1ca6fde02aU,
  0xe5edf541fecc4b05U, 0x165ee358eed70f0cU, 0x135a4e37e64c09d4U, 0x14e003faade022f4U,
  0xd2183ee39ed85925U, 0x4316afcb2cf6dba4U, 0x19d3b51c1c3e2d55U, 0xbdafb8e1cbe795c8U,
  0x2406f4fe0ffcddebU, 0x8dc6bb49c2f2db32U, 0x411ea80bc71427b4U, 0x4320f85ca54b1d38U,
  0xfe5d169917ee310eU, 0x9bdffcdfec1ddf24U, 0x2d1c3e3cad062ecaU, 0xffe715540444d99eU,
  0xfadd11de3c3203e1U, 0xb1fb741cc6cb66fbU, 0x2b681026eb07d917U, 0x419c1d52113cc823U,
  0x45252ad7c8ae952dU, 0xd5cf58b526e8cff3U, 0xff56e0169e4b0e17U, 0x2339d7d3c2c99dffU,
  0xd9310c121fec4bffU, 0x26fee0065102abdeU, 0x2012f1ddaabb29deU, 0x73de54dfc0fd1c9U,
  0xfe191f06d1af129cU, 0xf227a5b8f60e10f6U, 0xd727f5b22ae53606U, 0x1de6b7fe29d5d6d5U,
  0xd73800243948fcfdU, 0xf4464c5f29ebd44cU, 0x1948040946a81b27U, 0x72db51304d5a4e34U,
  0x3e0ca21d0fce1effU, 0xc9b212fd0649a524U, 0xa0f1a8f024f14431U, 0x4c0bc707f2010f37U,
  0xe75fe0301a47f1c4U, 0xfdacb54b48302121U, 0x2fafdfe72ab4adfeU, 0xdb23a8c8b42ee235U,
  0x2fce58e6e4a927f0U, 0x476301ccd8d03af5U, 0x37583437aef23441U, 0xd122c80545e3c8d4U,
  0xabfa5cb8d11a0920U, 0x100fcb248184f088U, 0xcd55ca1bd6260a05U, 0x3d1bd4eb1fa1391eU,
  0xfdddc7e936922b2bU, 0xc74e20502b3bc8dcU, 0xdcf31105255a4720U, 0x32fef9b228a21dd1U,
  0x10bc00ed28d420cbU, 0x410d3fc032f42baeU, 0x74901092c04562eU, 0xb0cec322e9221ec9U,
  0x49d30b0756083a41U, 0x611cca37c513e10aU, 0x20bf184519cad0f4U, 0xbc4cadd6e5e1a53bU,
  0xf2cbc9b62eb5f74dU, 0x5271ad1a6f93c1fU, 0x1a39cb5b02473238U, 0x30db42af0dde31feU,
  0x43b91e10322ded44U, 0x15347f1817c10a23U, 0x512b220e1afae91bU, 0x5b52df0bc37049cU,
  0x1cb49bd70cd7be18U, 0x83165dedf3a42dbU, 0x2fe85537f1a113ddU, 0xc1bcc06d3042d64U,
  0xdb0035a7f0dceafdU, 0x5310f7b3bb101cd3U, 0x4926e3d721be3329U, 0x2521e2b842d7dc4eU,
  0x8dbbb0f2c7da32d7U, 0xd6da1ddb171a212cU, 0x1eebbb1fbacede41U, 0xddc31ffce7de58e2U,
  0xee1f1ee1201e210aU, 0xe05d2bb912c4fb98U, 0x3af1fc0fded4f8b6U, 0xcbeafb2614d63b1bU,
  0xc20830e5e3e4a50fU, 0x17ff1dbad5c695b6U, 0xa1efc801b0bdd102U, 0xba1a1dfff11d2fbdU,
  0xf7eacd90ad01a8e6U, 0x5e4568f7a2591b3cU, 0x422eb9509fde24aeU, 0xc4d2bd28d1c1193bU,
  0xe7f2329f07ee35e6U, 0x3043033ec02707d7U, 0x4228c70ab2f912b5U, 0xabe247f2c216ebcbU,
  0xfabe0a1846d4da25U, 0x21f200edd3443ef9U, 0xe9aa0e7f9e9feeacU, 0xaa8330f2fd4f04d7U,
  0xb2049e4f030b2beeU, 0xe62da7ed27d5ea5bU, 0x42342bc4312df502U, 0x50681715c8f6d22fU,
  0xc529e05a107034eeU, 0x3ccf9b582ceacfbbU, 0xbcbabd590d40d7c3U, 0xf729200856ce12b2U,
  0x2c6d27d03f042d41U, 0xd5f8fcf11c0df335U, 0xedc45dbfe3ecbeb9U, 0xc8d2122e3156062cU,
  0x342943183be60720U, 0x40f3e43760342b0aU, 0x169838176ef73715U, 0x7f3640cc3283d34U,
  0x2a112b3eb3d3bfcaU, 0xd9f14bde64220c03U, 0xf2fcebd02fef3d3aU, 0xfdd141d140b44dd8U,
  0x8435f69dd22b9fcU, 0x3caa457fe250eU, 0xcae32cb00aec1fd1U, 0x441e2807f69b1517U,
  0x195eef719676eb2dU, 0xcfc8b714ea52c372U, 0x70dc1e8eaf0eeacU, 0xf62dfef332d4cabbU,
  0x18e3efd9b07bd0d8U, 0xacbcde5c52ea1663U, 0xd90006ad2d17e42aU, 0x3a29f7c112e71fe7U,
  0x473a40d5c221094bU, 0x4031da05e82a27edU, 0xb21dc4fe14d4c6d5U, 0xc908504c62f25904U,
  0xcd1c1248b52ec70dU, 0xb5d00af5292c1547U, 0x1912e24330caa355U, 0xc46505b000fad0e9U,
  0xce38fa6d5af41f6eU, 0x1d3dba962c124b58U, 0x47cd0c4a004dbd48U, 0xd828d627baf49429U,
  0xaf0ede5cd214d934U, 0xd266cbd105a8fdf4U, 0xd8e41be71360efd6U, 0x2bfe28baea8c32ceU,
  0x1ea0f2a904c8e4f4U, 0x4d45dabb1c1be0d4U, 0xaa0d299eafdae42bU, 0x49a651260533274aU,
  0x2095e0a3f781c446U, 0xf9b5e424b1f2aaa6U, 0x170bbaadc6f235c1U, 0xf1b2def99cbcf1c6U,
  0xdcafe921ddd6bee6U, 0xdf420153b1f48fa5U, 0xb0faf0c73fa0f7f1U, 0xfecbbe0b31e31dd9U,
  0x1ebd58a51ee12e41U, 0xd954eceabf95e91dU, 0x38300ae0fa2fe6bfU, 0xce1820aad192fc97U,
  0x4a2728b7d6c02e0dU, 0xf926d1f109ef1dbbU, 0xd14dd4baff36e851U, 0xebf2b6d7befcf7feU,
  0x4bddbbca6384fdfaU, 0xfe7610fcd6d63098U, 0x539b6582b3ac23fU, 0xeebadd58dbd5393aU,
  0xc2d6d1a4ab181f45U, 0xceb0ba23fc0b5434U, 0x4ad5cd2ee82fc8e8U, 0x3b2ac0d2cf12b233U,
  0x1ed3fea1f7bf097fU, 0x5afdc91ad53dbedbU, 0x6b180bd33827d0ccU, 0xa94448cc1feb0eccU,
  0xc7e6a9c9d7719ffcU, 0x2ec4db6700062043U, 0xd003eae11ec7d7e1U, 0x234a0e27cc01592fU,
  0x8ee2252024d2bca8U, 0xc6f4e31155414051U, 0xdbbcde2a4664a6dcU, 0x1a2d100ae81fd4c9U,
  0xf94c23054a3f4229U, 0x8d8322e103c2ed8U, 0x4256cc6d0a82f04U, 0x3f233eb12b2ea740U,
  0xc73ad8dc34f7c168U, 0xb4ee9725e9e1c05dU, 0xa4d0ecd43c2e0a25U, 0xdb45dfd021dec042U,
  0xf8e60fffcc0aea25U, 0xded3fbc74bf8f5daU, 0x10e7bbf1d812ca4aU, 0x47d90026cd0d4f09U,
  0x2802561ab63b51cdU, 0x3c634c38111cb5dcU, 0xe5c642d2d4cafffeU, 0x1cbee3b94deff239U,
  0x5f41c2c4202f05aU, 0x1a5bbbd54404f914U, 0xcebaf9ed0ce3c740U, 0xd6430abfdfedddd7U,
  0x471123f4d0f2421eU, 0xe15f3200cc8160dU, 0x532f55d267e84601U, 0xe4d1ed00592d4f17U,
  0x21dd22c8cc08fffeU, 0xd01a61d0d70df2f3U, 0xdec4215deb6f9bfU, 0xcf173d2ee33527d7U,
  0x1cd256ff043733b5U, 0x4d3d09e71116e2U, 0x3e1abaf0db1ce00bU, 0xb01b936fcf0c2fbU,
  0x441c4afad0fcfb23U, 0xebd3f90908ca1a5cU, 0x7f50aad53b60411cU, 0x39d7f8096414dc3bU,
  0xca0ebe855a3fbe5U, 0xea2a63dcf7edf7b2U, 0xedddabf3f6ee3a00U, 0x44a03dae7193c13U,
  0xcbd92532a0d20936U, 0x42d0092fda470305U, 0x5df424323c9f300U, 0xf4beced819ecf306U,
  0x174a470922facbd9U, 0xf629e1acc7143908U, 0x50c4ee5ade1a5e48U, 0x72d2f0c23dcba19U,
  0xd0e335f3ebc14156U, 0x21fb49cc0aef2fb8U, 0x55d8a330b7e83fc9U, 0xc39c182f0c12e725U,
  0x13472e2237b97155U, 0x3d447d05f6d1e93fU, 0xc60b3d55cdeaf2afU, 0x54d6d9c959bfe5d0U,
  0xf12fbcd34d14fc2fU, 0x31414ed583d8fb01U, 0xccab227ff1d345f8U, 0xebece5db9ec62d43U,
  0xc6e01514360caebdU, 0x57f841bfdc3bdc28U, 0x5f8d4ce15e753a8U, 0x23441b034adc3626U,
  0x12004dd3f591c4bcU, 0xfd1b0ddf82bd42e2U, 0xf19572a6fff3f7U, 0x9bbfa4aaf0c05909U,
  0xaaacd13d3e31c4cU, 0x41b83acd23cb1d1cU, 0x470e92f1e8ace0c6U, 0xbd0ec4e147d94cd0U,
  0x42e8fa290539af22U, 0xd44cb02bd0cde7fdU, 0x28ebd037b1021134U, 0xc92c3e5329f5ddccU,
  0xe30412bde703fcc1U, 0xd4a64aeebfe3f517U, 0x21faf00e16c1b707U, 0xeb18f0b54dd43119U,
  0x1a273fdc12c34e6aU, 0x2f41e001b804ecddU, 0x48f9503650c57fd6U, 0xbdd0e91e13cc4f28U,
  0xfdc5e2ee2f26e9ecU, 0x5d5427c64e5c311dU, 0x4f14efeed14bcba7U, 0x2fd92a3e3dfd2bf6U,
  0x5c1dcebfdd2f5b36U, 0x1f1a0bf34014b223U, 0xf1cf2fc9dbb61419U, 0xe747efcdecf05bf6U,
  0xcd002ae9f431e00aU, 0xa13df09d3a65719U, 0xc521065d39fd2c33U, 0xe42d4bc859321065U,
  0xe608ebfc4588cf5fU, 0xfb21d79fd19600b5U, 0xef56d11234084b73U, 0x15dcb602bcdfa0f1U,
  0xf1120cd3e30cd4f2U, 0x5f52a13ba1af1abU, 0xffdb3563b418f764U, 0x3e03dd25da8dedc9U,
  0xe52d24dd01e5faccU, 0x45be961cf413fbfcU, 0x422bc6ee2a164fa8U, 0x23cfbe510e07c4e5U,
  0xdcf91147165220deU, 0xc52e1bcfb045d221U, 0xb4e0d15126d0f1cbU, 0xc314260c08f7bf2aU,
  0x3e1b3ef6d52ccf49U, 0xb5f8180402e0efe9U, 0xe54ca422de0fde87U, 0xaef63e4ed0e6c9e3U,
  0xed33179feea59303U, 0x1de757b0c570edc6U, 0x25b311bb9bc62e9dU, 0xcf89e07868f22c3cU,
  0xfde3bd9c2fc13238U, 0xfa1b1adc177302d5U, 0x9512a42304d173f5U, 0x98280264f5c74d28U,
  0xd6010ec119b40331U, 0x4c574cea8c9881dbU, 0x12b8913db70ffbc3U, 0x1d8f822ebd0bb81eU,
  0x24c8ac4af1f6233cU, 0xb9cf0647c7a94741U, 0x25e322b3001a1aaaU, 0xcfd58dc45682833U,
  0x9242be99e80d0cd0U, 0xd41a98dc100aa2d4U, 0x475f16e03419403fU, 0xdc141abfc438e02cU,
  0x5afa9da74f29a4b4U, 0xbedaffd8f0d226cbU, 0xf7cbf62555e8c1b9U, 0x4aab1a5e29c55d00U,
  0x329afc2514be552dU, 0x15b3f2153ef4605bU, 0x163a243c221d1f49U, 0xffebe31f6ef1dd67U,
  0xe82cdb4201ab290aU, 0x1e15fdc75f0b3932U, 0xaeba64ebc4dcfe3bU, 0x1309d70c73010f4eU,
  0x2e441926bc4429fcU, 0x921383fe12d3bb3fU, 0x444544be4ee80034U, 0xa8ca1e22159f0114U,
  0x1fd0d030e57e0cc3U, 0xc544fcf9e8ccf4cfU, 0xdc2f193aed20f3ceU, 0xaffefd92542fbfeU,
  0x59e04a45047de572U, 0xe65bc8433b25d17dU, 0xdae704060564abf6U, 0x6b36f942461da912U,
  0x9fceb345cb0b562fU, 0x25d913b7ee3c291bU, 0xf7cd39d13d11c712U, 0x46ea58d1d9e704d4U,
  0x28f1707a4f6dc2bU, 0x39fcc0e958391840U, 0xc1ef3815dcc515caU, 0x17382748e414c1eeU,
  0xd0a3fce83b8158c9U, 0xfb0ed23556d1edc1U, 0x3ab13add1a5c42eeU, 0xc24dc4fdb21c46d8U,
  0x24b106350ec559c7U, 0xfdf9c9c4ce08c3f2U, 0xcfd03f90fe4b0608U, 0x22be80fe998e739U,
  0x2715be29cfee03cfU, 0x2ec0c7b4d2d4bf22U, 0xd02027cbf5aac610U, 0xec49233c23d63838U,
  0xfd231bb309b2abf2U, 0xfd572ffccde1d79dU, 0xa64a1b049cfd428aU, 0x7c0a23f1706d5d4U,
  0xed361a26a488071cU, 0xa8b3d6ca1d200eb7U, 0xcbcd98373420b517U, 0xbfdeb81e1fbe9b1cU,
  0x25f422e01017af21U, 0x19d2b60af3d732fcU, 0x35e5d41ac8760f9eU, 0xec360a2deb232043U,
  0xc1d252ed1d02fd0cU, 0xbecc240ed4300b1eU, 0xf43ae93ab529f2d8U, 0x3ace92bdbedfc036U,
  0x22d449d1e5c13021U, 0x4f542720c8ab432eU, 0xc94313f0d31de3ddU, 0x372b15a8e7231fcfU,
  0x360eaa365b2d2ef2U, 0xf4fcd5e4e9f300c8U, 0xca2ed805af0d2a0cU, 0xfcf299d424a5153bU,
  0x29cd47baf0fd2b3cU, 0x68e8c10110152eebU, 0x1fc014450c37f21bU, 0xcf412e24bd130e59U,
  0xfdab4fa8360bbcffU, 0xe2ef2f3bf022dd2U, 0xe6401f0ba51f1edbU, 0x3dfbb417f2dffba0U,
  0x7ceffd0eb080bc0U, 0x55feef43c0c43745U, 0xe0ed41e5d056abadU, 0x1acdb845f0c4c6c3U,
  0xe9dca5fb398be750U, 0x223bcdcb96f6070cU, 0xf8afeddb16812023U, 0xeb14e46b3927f309U,
  0xdf090fb35fd10ddfU, 0xb02bfe368f639fb9U, 0xc10a13d1d5ad6bd1U, 0x2e02c83f4d342db6U,
  0xedfd19bfebf72bb0U, 0x2239f0b2b35443U, 0xe08f191fd0ddba06U, 0xb4810a01dcf2824eU,
  0x7bdf1e1d398fdf7U, 0xfdf17435aed9c72dU, 0x8c23a679dfb4b9a8U, 0x2805f03401c1f5deU,
  0x20bef11cd4993225U, 0x2bb2632fbfe9d0eeU, 0xc042e8439ed26217U, 0x32c1d3b8bce1e897U,
  0x23a5f71464f8133dU, 0x7a944b213d13aeaU, 0xe114dadeb00f75eaU, 0x5f1e433bbcf2e206U,
  0xd110b4a123f7e6f7U, 0xc6163d9de8e823afU, 0xee1fc4d8acc55bf9U, 0x3a14fd04da03f71dU,
  0xeff961a34afc385eU, 0xdd1a0c3a9ffcec43U, 0x4934d06ced1507ccU, 0xcfbfc1d9a72aaeafU,
  0x45a39af86742c5a2U, 0x50f10ec2cd31ffadU, 0x1c94f928df24b6feU, 0x2a14470d49303614U,
  0x9ee812cd483dfbc2U, 0x14f217b59de857c0U, 0x5dd8bcba24383400U, 0x3e0c3a3f0cbd41e3U,
  0x3d2c29d9bea9fcdbU, 0x2cfad9051535620bU, 0xf8dfdf35f71254d7U, 0xa79d3a59d43e4af1U,
  0xe42b03aee6e2f3ebU, 0xd32968811a1efeU, 0x4a2f15dbe629d136U, 0xfcf1414ffae63e54U,
  0x262313994d0faae0U, 0x4e17d1d39f3cfdc8U, 0xecdcc2c8d84702e4U, 0xdd95e5d74ad81cdeU,
  0xb405a4ec49461adbU, 0xc1d5f50f2246e5bcU, 0x4ceedbce5f08446cU, 0x25b3fdde2252ce72U,
  0xfa6f05dac94fb936U, 0xc4b4e502d5674901U, 0x425c41ddd9f41438U, 0xac5e3d5fd4d3e5efU,
  0xb60dd8ce2b492b21U, 0x580ce92ad6c4bbe9U, 0x43cbbb463a49dce1U, 0xac01b9defd0eb506U,
  0x2828c846de681b4bU, 0x5b0a46b04e411fdaU, 0x2dd3f70245dd47d9U, 0x7fee7f529430fdfU,
  0x2744296ee4411508U, 0xe5ac541c7b52ab03U, 0x5775e5cb626fdce6U, 0xc7d1e9a8d75837e3U,
  0x203ebd72b670aaffU, 0x348fa2e23739f6dfU, 0xa23825e20a3ffcd6U, 0xfb5acfc6efa4dc54U,
  0xfce6bc52acef30caU, 0xab24eae1f83ca66fU, 0xae808340643295cU, 0x56c208dbfcb847dfU,
  0x162c2a01cedeb9eeU, 0xe009ce39f5c80bbcU, 0xe8bad0cac78106d7U, 0xff8f416828d23828U,
  0xe797a9b4ed060812U, 0x34d3fe01aaf8b2d0U, 0xc904b64790b92ccdU, 0xb4d6cdbf1b36163cU,
  0xedbfaee744c1c627U, 0x28dfaae1da494513U, 0xd2f5f1fc1005d3c5U, 0x9ecf37242f4afceaU,
  0x1a06494a323602dbU, 0x4e18aecf29c20fc5U, 0xc52af930f72ded59U, 0xe12ebac307033bd5U,
  0x2bdaec171f41a92eU, 0xbc14f5ecf9ec0e33U, 0xd308fefbb7ccd8d4U, 0xbbf8f1e02609c6f0U,
  0xd22ec43cdcf71023U, 0x13dbdb4301eca333U, 0xf6ef4ecae043ae24U, 0xfb3101a737fddeU,
  0xe91b0a5806c12cbfU, 0xf4ebdefaffb3f910U, 0x18b82fe9fdcacf32U, 0xcbe1d7dac2e9fa04U,
  0xd8ca40e02728031dU, 0xb1dd0ab717c9e826U, 0xafb404feecd7e541U, 0xe84ccd25c8e1953bU,
  0xdb122a40fee718cbU, 0xe8b72801e3f5deb5U, 0xdf0914e5271bf5c9U, 0x2a2230f637e816fcU,
  0x2a37f9d7f125fef2U, 0xd9d502c8e6fee72bU, 0xd91bd1f9b5c9fdfcU, 0xec7f3310510fe0fU,
  0xc63a23380df41054U, 0xf6ffe538de611b10U, 0x3d0a4bf69f40fbebU, 0xe67f0e18bf0cf430U,
  0x1e481ce1202e230aU, 0xabc6d9ec4943fd24U, 0xdc7a0ad916fae048U, 0x1869f4da3bfa34f2U,
  0xfffa1dbec3feda08U, 0x52007282a089df3U, 0x1cdab82b061b061cU, 0xaac3f6000ef0fff8U,
  0x47c0f328cc173ce4U, 0xef15ede41f1e3513U, 0xc7ae0df510e534e6U, 0x4b253affd9f8fd2cU,
  0x40dd5857db1b2b0aU, 0xa132490f938293dU, 0xf1090dcf570bfa30U, 0x5ecef790e923e706U,
  0xd8d9b512ec22de13U, 0x4c834d2b3150602U, 0xf3ef1ace25fa0412U, 0xc3318aedf0f0e615U,
  0xbb680abd052de1e4U, 0x60f5130aa5c4f6feU, 0xd463122a2feca9d2U, 0x6c121fb05a00b04U,
  0x2d5acb1e4e10f1e4U, 0x1fece8caf8db032bU, 0x172dc02509df23f1U, 0xd9e7ca2302491af9U,
  0x650542de52cdff39U, 0x4ed31b23e82fafe1U, 0xb5364a0e5a1108f5U, 0xc51b1910c8c516c9U,
  0x16003cd30df3fa3cU, 0xce2efafeb8b41b35U, 0x9e3d095924f6efe5U, 0x3acd28da0030240cU,
  0x1a16fef2edce07a2U, 0xc100172946d1dbe2U, 0x301f2c57351a2df2U, 0x10233cdd181c25eeU,
  0x307fccc122cd2f5cU, 0xd5e556f70ef2150aU, 0x58fe5e4807f90a29U, 0x332150d2c3e3d35U,
  0xf03f0d1d15301f0fU, 0x111150ed4d31e022U, 0x4357443c2443f8bdU, 0xf9f979f5da3e301aU,
  0xb758fed05317480eU, 0x2bb83a02f214b7ffU, 0xf42903d333322d19U, 0xf3d1e61c3916d7a3U,
  0xd45df5625d435df8U, 0x22bffb26471300f6U, 0x2e25ea40cbff2ff7U, 0x3ce6e11b041420d1U,
  0xb02dcb3dd631fc8U, 0x16c2341d63501a44U, 0x2a2f05123345eaf2U, 0xde273807464030bcU,
  0x9c1c522001202efaU, 0xfae7f6d72805d82dU, 0xda4c54e103d8e30fU, 0xe80b2d064bf0bfbbU,
  0x49f34157caedf465U, 0xc0e09fa6651fbde7U, 0xe81325f8f8fc81a8U, 0x274854bcb5beb541U,
  0xacd833cc0abe3cd9U, 0xdf1797e6f11e3118U, 0x4cd0041007dba738U, 0x36cb34adc999ecd0U,
  0x9e971ea3ecd1c829U, 0xb1f7444ce01def39U, 0x57edefbace0eb2ccU, 0x10d83533c9131838U,
  0x43a023fc11c0aef6U, 0x4844d5ecfdf60ee4U, 0x4dd8e718cb462505U, 0x95f5049f15fde7d3U,
  0xc5c54ab6efb2f754U, 0x5b483564c2e3f2d0U, 0x49fb1e1faa0533e4U, 0x2df00bb6230cb232U,
  0xffffd2ca2f28b242U, 0x48c8c0f8cbd4bf39U, 0x3e1fbf230dcf724U, 0xe3a9ea152fe008e8U,
  0x82f408af8bec927U, 0xd24c36daa159fe28U, 0xf91dfb37893de6f7U, 0xcd310353c2ea60edU,
  0xfcef4505ecb41f06U, 0x1cd946bb285a0aabU, 0x8f2d4ef9f63d0cc3U, 0xd2353bbadd3732ceU,
  0x340cdf5c11dd2eb8U, 0xdcb93bc54ef5d528U, 0x165c23afe626ed3aU, 0xf8c4cfc6220fa90dU,
  0x22aae4167efea9e7U, 0x7d1855ee172551e7U, 0x7fd2d833ca073b12U, 0x31070c7f627c56ccU,
  0x40c2f9522c36e1f9U, 0x2d2069251c2551c7U, 0x6305743c22535152U, 0x6516fdcf3f2a4236U,
  0x1a9934374f58de71U, 0xf154f9ff13be3924U, 0x6ba00a3571b00313U, 0x40490e762050d0e5U,
  0xf03fee09b86addf6U, 0x139e1e25e0771affU, 0xc63336d2aab839d7U, 0xb6d7f4d0a246a1fU,
  0x41af36c5ca2226bcU, 0x22f14ca19d6f5e6U, 0xfc0daa26363dd20aU, 0xca35380c07f5e22cU,
  0xabd527ca34bc94eeU, 0xdf3aa419db257c4dU, 0xe314e898220cc205U, 0x43ddc6db2329d304U,
  0xac37addbc54e9f16U, 0xd7f0950abe07d73fU, 0xcab447ff174b11ffU, 0x4344c739401b4c4eU,
  0xd70300f72d28a516U, 0xc62f99ca3b44f994U, 0xabf5dee8d8e6a549U, 0x23d45040a9715e6U,
  0x283f329bc60ab45cU, 0xab9a26021da80a4bU, 0x6927b86dbcce8ffU, 0x315254bc0fb2a1f9U,
  0x52c01f2b03e737cdU, 0xf4ac3a9e2d35c816U, 0x34c6cb2b4cc0260bU, 0x9c4cbdba4bfde2cU,
  0x3d165abef8eeb62cU, 0x20c6dbe0b5ead2caU, 0x170301184eb0dc05U, 0x1fc41c229e341edaU,
  0xd9c23f316488abecU, 0x9dac90ad71318f1U, 0x14b4012bd8dc32d9U, 0x55f111b8c02cee56U,
  0xe8d798ada027d916U, 0xea140207d23cd78aU, 0x4747c9110e2149c7U, 0x8e1e0dfaff2819d8U,
  0x1c02cb1d422e98edU, 0x2e113fe3af1bc5d7U, 0x33c2b6da1cd5f79dU, 0xf92cc51525159420U,
  0xedf5a5b2c103d2deU, 0x6321bccaa9ae4514U, 0xfd35a4b8d5c9d8d5U, 0x4ac6434f1add5806U,
  0x8e28b3df540ed720U, 0xf217a5fd5b4e0d65U, 0xd7a736d1eaeffdb0U, 0xef0b16b0004240fbU,
  0xb95cc5feda31c5c4U, 0xc0c1d02e597a4424U, 0xd252faf2dccbbb16U, 0x31fa3543f657fca1U,
  0x3a1b150b5f7fc18dU, 0xf61bf53c14b17c52U, 0x2c135de4b10de6edU, 0x7c82b451a48c7e0U,
  0x5228082d41274767U, 0xc34fac7cf1db84fU, 0xd30906c351e66666U, 0x3b67f51c01e9de12U,
  0xfb01411aeceecf02U, 0xb707eaae2551fe1cU, 0xd5e1c301471eb31eU, 0xf1d5caf43b0cd19eU,
  0x3f0d37363ebb2ad0U, 0xf13bbefde8e9fbc6U, 0x5beaaadce7d462d2U, 0xa4d21fc6fbfa4320U,
  0xc901a7113ee89f10U, 0x103fce28c9cc10c1U, 0xf7f6f80d0beee217U, 0xed020034dc5b43d2U,
  0xa07fd024e52f934fU, 0xb9edb7be99b8ada7U, 0x3861d7f49f1d2e0fU, 0xd4d1fe35d201d4bdU,
  0xa44141bcafd9ec36U, 0xd8e75abd329a0a00U, 0x323a26faecc852fbU, 0xcc2404bebb11dbd1U,
  0x4540da0ddc28182fU, 0xf0e4e9e54cee42f0U, 0x11ad54ee1643e260U, 0xf5351026d3e8cdc3U,
  0x3cecf12429dd041cU, 0x9ccf44cd53313a07U, 0xe603eb35d6f4bff3U, 0x49c334c854351188U,
  0x30031b2935003190U, 0xf7e5bf1f5712e128U, 0xf38b93e2e40090aU, 0xc0af10f9f0e8eb9cU,
  0x9eeeaa19281ad72fU, 0x969ed050d628d5e9U, 0x13c9ebb933ce04efU, 0xcbd2e5df7386070U,
  0xe133a742e538eff6U, 0xffdecf13d26cc62U, 0xeddcd1dc08ab0bafU, 0x16c75bc11108c8a1U,
  0x342ce1a8ed253540U, 0xa7dbc29bdcebb8f6U, 0xdffdbcb60fe923c2U, 0x5ec5f5711ff0e717U,
  0xe4afdd0532f9f60bU, 0x542d2c46c6968ea3U, 0x263e01c3f311f9fbU, 0xd841d04e54a793d6U,
  0xcecb4c3b33316203U, 0x422f2d46ca9d9cbfU, 0xf81328b45f7156e2U, 0x4b6016b64d1d8401U,
  0x4f691e41946643bdU, 0xe2c33829f1952f14U, 0xa055e8c95af63733U, 0xdffdd641138b2c00U,
  0xdcd858f92ec4fdd5U, 0x39f5f9cef325afe3U, 0xdd41bd59312ccda2U, 0x18c62545985e324dU,
  0x5f07d6470f4cea3fU, 0xdc0a0df0bebc4fe3U, 0x219ea9c258ab3dfaU, 0x1363cfaadb321e47U,
  0x330c7f511c97fd4U, 0xeae6cf0503edfbf1U, 0x4f2b121002e20f33U, 0xe40b18c83344b1d2U,
  0xc8f8b9056df4e0b4U, 0x5f9f34d3fe01112U, 0xe22426fff9ea0e00U, 0x15df0b2c080212caU,
  0x3deb30e068c4d120U, 0x17b7f95ec66dda5eU, 0xdae22bd1ccecccfdU, 0x343e6dfcea29dd45U,
  0x83335033414d6b3U, 0x17bfc3c807183d3dU, 0x1f61ea9ffedb0f3bU, 0x542f11cecc5a1bfcU,
  0xb1e08ed2a015922U, 0x16ebf20d2e1fb2e1U, 0xb20abae23c0a0bf3U, 0xf2dab222a525ddefU,
  0x47032250daf8204fU, 0xb6c2ebc6aac2095cU, 0x6dc50eb420f3a4eU, 0x232e1bc213ed17feU,
  0xf4ffc609f7f83ad2U, 0xb753c0c915274b41U, 0xa3f3f1e0fe05a1ceU, 0x424d460ad715ceedU,
  0x4419d0f010cd5f4U, 0x38ea44ec06235eb0U, 0x2a5ae3d0da38c1a5U, 0xe3ef24e744ce5ca3U,
  0xcff90898ed06a403U, 0xf8e8de330711d1c0U, 0x314fe82511bbcae9U, 0x32c2bc09014f2eb8U,
  0x42b5d7811fb9d23dU, 0x4c2cdcd69c19f79eU, 0x20ffa62bf49b42eaU, 0xa3450abcde472dbeU,
  0x1a610dc85ff864c6U, 0x88b04f34dda04d8U, 0xdab0370fa15fbaeU, 0xbc8c3de8361aeae1U,
  0xa6caac1e0222b940U, 0xb9225f4be0014f5eU, 0x77d89f15f6d649b1U, 0xf31f3ec6d57845a4U,
  0xcd58a367534c8abU, 0xea2860b4e7bfb8afU, 0x2e42d80fc327be84U, 0x63b9de172d3c0436U,
  0xc368d3278fb170eeU, 0x17195c3ecb3f0f31U, 0xeedb323cb64a01d4U, 0xe535f2d555cf3556U,
  0xcbd32e4e545d080cU, 0xef1538c538eff03cU, 0x9000c1acb4fbac4U, 0xc627c740c7c4d017U,
  0xe41ab4eb22cdc73eU, 0x3d1bf056befe19cdU, 0x24dd5d091fcde13dU, 0x1c1d5811fe2cfe53U,
  0xf3c93aaf14c804ecU, 0xe307ebfc28d21b96U, 0x1f18c3cc48c61132U, 0xa89f98aaf6fabc3fU,
  0xc74cbc187ad2b41eU, 0xbda36be4260d47cfU, 0x165fcd321ab80fb8U, 0xd723acd42253af25U,
  0xe528acb9a6a2093aU, 0x2b48c0f9fb811714U, 0xee3629bf9ec83c1aU, 0xd35b2ff5a205b5d2U,
  0x3313e7e2f95fd405U, 0x14f4f2cc71ccf713U, 0x5e50490b0367505eU, 0xcd3331d301545de4U,
  0xfb114e113971b7U, 0x57e2c8f17fc4cb46U, 0xc0fcec5bf56635fbU, 0x4c1405dcb903bfbdU,
  0xeb5fe6ffccc629e7U, 0x4e13de25ec0b0119U, 0x3d17237567571df8U, 0x66341225e9b1e8f8U,
  0x1ff7465bb91a1230U, 0x3de129e215d1e9c8U, 0xba15ca18ef1daec6U, 0x3dafefc3fae5b2e9U,
  0x9dc7f4de58cfd0b1U, 0x2620dbdebfbdbfe2U, 0xf6303c11242c263bU, 0xd9a71e60c3d620eaU,
  0x2d412f9e03a9f82fU, 0xc52d5b36c6c71ae2U, 0x50c0cde4c9feb825U, 0xac2d08f6cff00926U,
  0xbf1c26c3331202daU, 0xdf3f9f4b24381935U, 0x500405cf17d649c7U, 0x2dcfb65ff6e662ecU,
  0x16f9a8a81bc1edc7U, 0xe70e1af3e425c888U, 0xafae2f29b3110506U, 0xd7bdbfd3dd2944d8U,
  0x3b44b1c2deb2dbe7U, 0xc53235049fb0d5bfU, 0x219b1c0bbb04300U, 0x27fb2604ac2bc5e0U,
  0xb50320eadb2104b0U, 0x984d31a0a00b820U, 0xba1a64c3beea1cf0U, 0xc2f26fcc31f29c4U,
  0xd035ad67fe1dd4f6U, 0xf9e684d20e932b4aU, 0xfe4f1704e74581efU, 0xb2bdd889ed0512eaU,
  0xcd3d2d09a1c7decdU, 0xbd8fcce834d1b2e5U, 0x95444dd4420fa160U, 0xe2079bd1daffc324U,
  0xbfdff5a3e6d632f8U, 0xf804a904134085aaU, 0xd747cc1ce70033dcU, 0x89b824bd0bf13c15U,
  0x10363c22db07dfadU, 0xda1af99129180bf9U, 0xc24fcc31e5e42d9U, 0xda84dd9307c9fefcU,
  0xb0f63eb321b6f8c2U, 0xd5e6b4380c30d539U, 0x3261eb53441b43aU, 0xaeef50ace14b90eU,
  0x43daa32ef4bdb51aU, 0xb6dffb380f0ca725U, 0x302da406211821b9U, 0xf119e5f5bd3cc540U,
  0xc2a8ed04f783e232U, 0x13f7d8b38aa7e5f5U, 0xc700f4d043402127U, 0xa1da0d01c407f02cU,
  0xf751eefcbf312820U, 0x2d505dff1607e3f6U, 0xe5fffb3515b2c2e3U, 0x1419f2bce6a5cafeU,
  0xd0e927f11a2a2751U, 0xf5c438452505052dU, 0x1915d5fe34b3f716U, 0xd92bcd69516f5b14U,
  0xd83d37ebe8ea313aU, 0x9f534e9482208acU, 0xc42ddd9fcee3c15U, 0x4fff1d3318344a1aU,
  0xd0a4c7b4ebeaa252U, 0xc6c140c927e40a09U, 0xe438fbfed3e4fe3aU, 0xd44859d5fbe40ef0U,
  0x1f3eca00ed512838U, 0x1f8bddde1e0edc01U, 0x403dc3e9e9282719U, 0x1b160c40242e2b47U,
  0xa4a70249bc3ab09fU, 0x42e0eef421da2cbcU, 0x1f16b44830cf09c5U, 0xf981eecffa45f2a4U,
  0xfffd9533cd9cdf2U, 0xbb039bcd59d6fa5fU, 0x22d40691c9cdb3fcU, 0xdfe1fc1e430d421eU,
  0xca3c05deb608fdbeU, 0x35f933f320c4e1ecU, 0xab1545dd05e1fe34U, 0xb5214681a1eef629U,
  0xc424b32bb42bdc11U, 0x51b305e907ef2412U, 0xd8f9059b12cdb2b4U, 0xb7c4b5eb291b21caU,
  0xafc245affdf3c905U, 0xe1cdb3f321e5fb18U, 0xb21a34a5e610ba2aU, 0xdb5610e6cf4b0243U,
  0xa4ea3101cbd781ffU, 0xa8da48d3b3d0de12U, 0xad40dbe6943a5acdU, 0x71dfd363236ed18U,
  0x33fc1cd223b7c5f6U, 0x4017f22d3e35f4caU, 0xa5fbafd3f6f9e234U, 0x39f532d9000a0710U,
  0x23c3392ecebcd8ceU, 0x18a3cc0d49c2b0e1U, 0x3a2c3ea5affe974cU, 0xeb504622d4f1cf20U,
  0x510ec537261402d8U, 0x5382adb08082f27U, 0x422bf11031fceb31U, 0x3c3babe241e2eaeU,
  0x3ff52abb1e37b224U, 0xb0e0fcfeca6906e9U, 0xb40dd2cc3ccb97beU, 0x8aee60ddc6d30ddcU,
  0x7e8e60fd40f430fU, 0x1d02cfbd61cec216U, 0xf2a71402d7d5df07U, 0xc3d59fe6d9d848b7U,
  0xe4242dcbd731a728U, 0x62a45f6db55f7b2U, 0x2e06b8f5b5472ef8U, 0x3cced7df40643dfcU,
  0xe8963e4c25b933d9U, 0xf916e9d30b10d3ccU, 0xac07c5f118caead3U, 0xc11cfad9c8b20af4U,
  0xc49060ffa6ecd9e1U, 0xa040e120bb60fdaU, 0xb6d7b8132d5ea82eU, 0x1739d1ebb90328a8U,
  0x34c9e01d0b8d07b7U, 0x2bbacb41e503dcd3U, 0xeb5d1f3bae02c13U, 0xef404022afdba753U,
  0xedbcce150405f4f8U, 0x57df36c91d16eb39U, 0x72ac1d715c436deU, 0x4c414d42f6a439e4U,
  0xd2fd5d06bdcc1c2fU, 0x1bd32420c6d51a13U, 0x1112eee95252eb1fU, 0xf2469f18e822e6bbU,
  0x31bde9af0be828abU, 0x5de80ded3e2ebed2U, 0xf9bae7590d142bdeU, 0xafcecf3f2c394632U,
  0xb81e45b63b4ada0aU, 0xe0f12a17200b56e9U, 0xde44f56ab2135341U, 0xf84a1725391d3802U,
  0xfc1519051e34985eU, 0x3157d90f9d44b8a5U, 0x5015e1158e00f4bbU, 0x1937d1211d1755bdU,
  0x3b78cb421ae0ff14U, 0xf8f62efd3f0f3c64U, 0xcb4413dc5848b263U, 0xeb15a7f4bb1c1e42U,
  0xd03616cc14082ccaU, 0xcf23e23a6b42627bU, 0x31c1e1ee02ec2b21U, 0x1337e1ba010ac2e4U,
  0xd30f033db9627f54U, 0x239ce85ac5f1fc73U, 0x513e9be20dc1a30U, 0xe0907fcf0df1e2bU,
  0x23d4289a60b74345U, 0x427f2b30e9ddb9eeU, 0xe21433431fb8c3ecU, 0x35dbf12815c64b31U,
  0xc19ea1910aee9323U, 0x60550dcd92f5fc35U, 0x11f5c200d1de0ddeU, 0xf113bee6eacffa2bU,
  0x9eecf4cc32c40a04U, 0xd04d1130a6554fc8U, 0xfff6aeba035fba4fU, 0xe727581727c9dbe4U,
  0xe8b4195346b4dbc5U, 0x5e509eaa641b35d1U, 0x2de61859271ad63bU, 0x3008ecd72df7e5daU,
  0xb5fa165029ce0ee5U, 0xbec025fcdf400e39U, 0x602ba50319270007U, 0xe2ed3fbf2de7f7f3U,
  0x27e8b337e1bb2519U, 0xb4004ac0311532bdU, 0xf3f4ddd5531a32f3U, 0x3afcbdd2c6f110e8U,
  0x88b37befb9fb755U, 0x22511cd5ed0cc3c7U, 0x370bb1511c922103U, 0xae1fd1b4c89b29cbU,
  0x2b7a435b7be09bdU, 0x3bc73a2dcc05cef8U, 0x2b050030e3b5d809U, 0xe2b8f63ac60fe220U,
  0xad0734e2e100b708U, 0x584642fb370906afU, 0xd21299e6231903eaU, 0x9a3cc3bcfa0ce7U,
  0x4b453a31ca40d71dU, 0x4f5ae6f9eea844feU, 0xe4a2ee45fd3236ffU, 0x1f27b73ae3cab9cdU,
  0x8dddc4c2528c221U, 0xc107d32cecdf5b4bU, 0x23d21403e41593c1U, 0xdee3cfdc2fb4c497U,
  0x215813eb6eef20f1U, 0x1070d0bbcf2d5b7U, 0x27ccdae9b5d0c3f5U, 0xebd0ec54c2d00a35U,
  0xb8f7bc14d89ef142U, 0xc4e43605b036e4a0U, 0x331afaec1bf230eaU, 0xba0838184dd44df3U,
  0xd22438052fc3e4c1U, 0x7a1d6ef0525c303U, 0x502d9f06d5002ceeU, 0xe1bec9c714152d1fU,
  0x4b07da23c981fc27U, 0x344bfffcec9f02cdU, 0x9444ac053cec4b5fU, 0xd12f43baffbd5ddU,
  0x4afbf5db3cf3db10U, 0xe7f23f025bdd51e8U, 0xfaa8fb233f281fbeU, 0x2228c81611faaaceU,
  0x2a3240e640b555d2U, 0x523bc7f8e11869deU, 0x2edeb0a5e9ddb94bU, 0x33d8bd1eb1d9deb0U,
  0x16f42f392f283e01U, 0x9bbcd8c1f53b2f17U, 0x45ac0d3eb5c93907U, 0x4046120cce3e2fccU,
  0xe119b8b95338fd31U, 0x8f253c2cde275228U, 0x33d13238bfbbdebeU, 0xbe05f449d9176942U,
  0x63f046c56ab3aeddU, 0xd10760c6cd06c849U, 0x691f0145123c410cU, 0x5e08fd6dac382d15U,
  0x61de5104ddddbad8U, 0x48253f070632c0e4U, 0x5ff1f355c57210ebU, 0xc54b2bfd17f94972U,
  0x9fdde10e2328154dU, 0x3df4a70af355be3eU, 0x320618def8102acaU, 0x28555a253297373fU,
  0xe668153dfb32a400U, 0xa6fdb70723120f1aU, 0xe9e611db524fbec7U, 0x2410c7d0c45fc849U,
  0xba0d43a45850c2e5U, 0x3238110809415cf5U, 0x1ddd22ce2b2ce048U, 0xd3e0eb071d011b3fU,
  0x2f6102e2b49fc01U, 0xaac0021d59fe381dU, 0xbc733ec1a10b4caU, 0x5be015e7ad0de051U,
  0xf1dcf54d16f33445U, 0xdaaefd01369e05d2U, 0xdb2fefdace2732f8U, 0x13fe29ffe5e4ecf6U,
  0xd3b5e3208222e728U, 0xbb4d876861531053U, 0x1c067fca40d803eaU, 0xf2f82a207430fb4aU,
  0xfbd2f12a01e53820U, 0xaacff212f3edd5fdU, 0xb947bd322e230a44U, 0x66192ddce5b42343U,
  0xce238b35bcaa5f2U, 0xf01f36cfb1ff61faU, 0x5d31dd0da05eba8U, 0x9416dfa6c2ec080fU,
  0x1a4df74825070ce2U, 0x4e140bd63b4ca3aeU, 0xdda5dc0e84161aaeU, 0xaaf6590054394874U,
  0xdfd74cc9d9a38509U, 0x62f64ae4b7072423U, 0xa637ab1310bc02e6U, 0x9fcef90c81022c02U,
  0xe7bf2a8d17cdba4aU, 0x924400cc0f100495U, 0xb9bc039211f1d8e8U, 0xcb3ab90f40ab1bcbU,
  0x6bd04f0f25495f15U, 0x3118bab3c4e2cdd9U, 0x944b334828f5f801U, 0x2d4dca9cdc30a4d9U,
  0xee9d35100ac303d1U, 0x440201b11446482eU, 0xa4932a54b09f28ceU, 0x3db28a33b8af1546U,
  0xeabb9fdc092fdcbfU, 0x512a23eb8db1d7e2U, 0x60cac0b3eba5ee2fU, 0xe1e61eae8260beeU,
  0xc1e2832ac8d42cf3U, 0xb134622ed9180ef8U, 0x430cd1dd8991058aU, 0xfad50affd1960fb3U,
  0x3affffff47U, 0xda0000011fU, 0xffffff08fffffd93U, 0xffffff18ffffffe1U,
  0x173ffffff1bU, 0xffffff1f000000e5U, 0xffffff77fffffdc3U, 0xffffff1cffffffdcU,
  0xffffff7effffffa6U, 0xfffffe7600000044U, 0xffffffc7fffffe85U, 0xffffff9bfffffd56U,
  0xffffff42fffffd97U, 0xffffffe3fffffe1aU, 0x206fffffed3U, 0xfffffe45fffffdaaU,
  0xffffffe900000020U, 0xfffffcefffffff6cU, 0x84000000aaU, 0xe5000000c7U,
  0x9bfffffe7eU, 0x2ffffffa0U, 0xfffffdacffffffcfU, 0xfffffee3fffffe4bU,
  0x2c5fffffeb6U, 0xffffffd0fffffd80U, 0xffffffc5ffffff97U, 0xffffff7900000072U,
  0xbcfffffe7cU, 0xffffffa1000000f3U, 0x13000000089U, 0x12e000000d5U,
  0x2cb7282bb2022c3bU, 0x20a90fb6f05db934U, 0x4a2557adc5c65446U, 0x494ddea9cfca2ab4U,
  0x3a44aff34f3fff01U, 0x2d39e7ed5bd7dee3U, 0xe1b4333b5d0a1d04U, 0x27d5d308eefac226U,
  0x14d734d6012469c9U, 0xfce8200fb33f3735U, 0xee2a3dc8e93f06abU, 0xe31fe14db6704d1fU,
  0xf2cdce05eb50c449U, 0x1d3a18f539d12ccdU, 0x35d205f12602b9f1U, 0x1ae3ecc2cfedc0e8U,
  0x47c244f4ec2b494aU, 0xe516fc441648af02U, 0x22e207cbb1e50dd3U, 0x49240cf43acb29f1U,
  0x1ea8ba06402af240U, 0xfe150e6e5fe14329U, 0x150b42142019f7fcU, 0xcc15e8b537d6f8eaU,
  0x21cde4e05b1f0ae1U, 0x13ee5a25c72be3dcU, 0xe738f218cce2cb46U, 0x35f2c7e51424e4c7U,
  0xc52b31e4f664cae6U, 0xe38b01b40cbacbfU, 0x56a634133247de71U, 0xdceae10d48d0d6dbU,
  0xe0e8c824ecbb18U, 0xd9f416c79ea7e816U, 0x4731e4198bf04d20U, 0xa7a7c8bbb607affdU,
  0xed0fd4900d6c026U, 0x1101cdeb08373dbbU, 0xbd262f260b08b30aU, 0xcb1cec0c12364f08U,
  0xa14f90b54f0342aU, 0xe7dee8e6e946ed3fU, 0x1e0ef0bbdaf97aecU, 0xf5e4c3d926130bd3U,
  0xac209c2c0c091bc9U, 0x59200a38d1d51fffU, 0xe7534e4317074545U, 0x3131281430c63812U,
  0xc4cbda591e224a04U, 0xce74210feddf5d3U, 0x17113f3ddb23c42bU, 0x6728f90bedff56e2U,
  0x3a0417faf2dbe252U, 0x55a9a60b2834e5daU, 0x41ba377fcc16b712U, 0x43e7c554b9f0eb40U,
  0xe8fbd74a532d311dU, 0x3733db603eccba2cU, 0xeadbbaf905e219f5U, 0x42f7812133db3adaU,
  0xb020f50e42a93843U, 0xfabccd34efa9272fU, 0xcfeae913dee90ebfU, 0xedc2a4eeb530c5bU,
  0x4636f60104c7eae1U, 0x372b120f3c11cceaU, 0x4e0eebc141d3705U, 0xdacf1cd1818121bU,
  0x9acbdfe503afdeccU, 0xd1e12221e2eb07c4U, 0x3ba0327bdecde0aU, 0xfbd344cbec4d1756U,
  0x57f1cfead20aeb08U, 0x1e062eb7ba03b4b9U, 0xd5d6300558340b1cU, 0xf3f57702cf10ec1eU,
  0xe3c74001f8fb2e24U, 0xec1b221619b1ecfbU, 0x2f4a0d4734280532U, 0x7091dc6f0f91139U,
  0xfefad7de39d01b24U, 0x3c24cd4fc7fd31d9U, 0x18da04291202c5c2U, 0xb35369f246db3bc4U,
  0xc0aeda31fd7111bU, 0x1b03ccc30cd215c5U, 0xeeb7f1e6c4150546U, 0xa46202051c521b9U,
  0xe9f9b5fdf937cf55U, 0xc710282d5be718f3U, 0x152e1c17fe9bea22U, 0x551169f4f81524d5U,
  0x1616680cc8bc4be4U, 0xd3ed1b800dce919U, 0xff3639e4e3e34b19U, 0xbd938f6fec5e8c6U,
  0x12fde3b492ac0cbU, 0x2df9e560afdcfdU, 0xef2ac8f60cd30d01U, 0xabe7f91427a80602U,
  0xbb5b181d07e8fa24U, 0xdcee0dd2f4caed1aU, 0x264245e7df995c5cU, 0x1e50ee11f41f0026U,
  0x14c43cbfd762c302U, 0x2fd4dbb1d0a1e49U, 0x280cf4c9011c1ef0U, 0xc5300ce12ab505d0U,
  0x2e16eb19d719c7d5U, 0x447f0cc2f5463b2fU, 0x1eb0dcbbc3e55f5U, 0x3a2a11350e07dc55U,
  0x583ae83d2b00d427U, 0x64e2fefccaaa2253U, 0x1dd13621b423e531U, 0x423c0a1114b0e6f9U,
  0x47034b20cb181734U, 0xf56fd2dbf543de9U, 0x9bf524e803c336b7U, 0x4817e61bdbee36dbU,
  0x4d17c6c23c450105U, 0xd40b53da3a99d603U, 0x3c593dee0ae52b06U, 0xc50bfa151a00cc26U,
  0xf306d841e52400f7U, 0xf032e6af2a2fc6f2U, 0xf7e8cd233ec94ce6U, 0x14f7d41711ce2f10U,
  0x5013a9f231d1effU, 0xe0f9c3b4bbddf433U, 0x46ed1ce2d04d57edU, 0x173ae2dc39300705U,
  0xde21dde6c4cb04a2U, 0xc84319d6c1f33122U, 0x140239181e2f1ee0U, 0xb6cac62021a8fffbU,
  0x2ae1f9c32613fcdcU, 0xd2ab31caa7c7135eU, 0x8d621a316121e2cU, 0x20e62ce8dcf3fad2U,
  0x3c420a4014de38d6U, 0xe805cb000a56f4feU, 0x2cc624e4d649464fU, 0x3461c6c5d99642f7U,
  0xeece2442eb102af5U, 0x90e2c99cb033ad9U, 0xd23fdb33c7dde424U, 0x21fddcf6ebd3d8f5U,
  0x4501e7bf6036bd59U, 0x2e510c19addd0ad7U, 0x37ec330e1f0743baU, 0x98d703e234eb2b41U,
  0x2f11e82e270e142aU, 0xfef603c122372708U, 0x8cdece0ed314f5aU, 0x1b41d0bd161fcc26U,
  0xf61b0ee27a2f2c14U, 0xf02d0c31a6bff715U, 0x69bfc4050215c21fU, 0xcf1abe2290e3e06U,
  0x34ce9e719312415U, 0x35cbc9dd24e4ec41U, 0xbc28f7dbcdccf1f2U, 0x16f43b1be509ccd4U,
  0x3a1edaf8121fbfe4U, 0xd227f2ea02eff22bU, 0x1dc742ceeaf911f8U, 0xa2fa0d0f7f01714U,
  0x1725ed102d2439e8U, 0xf82ad490d545e70eU, 0xc90b1c28da18ce3bU, 0x47ed1a3230385b4fU,
  0x34cf4e131c3be033U, 0xc31c4e08cf27a562U, 0x37c90702dc16001dU, 0xb10f3dd36014181fU,
  0x2060850162f323cU, 0x2e3bfab8d3f3c2d0U, 0xe31fc31899390ff1U, 0x18e6e523f7cdde26U,
  0x2dd34cfb3755f3e7U, 0x12cb351de3d928ebU, 0xd4c301a61d1801efU, 0xf7504714f29f1efeU,
  0x29f7d4d83d3c042dU, 0x40f93b2a22bbc350U, 0x23ecffef06eff510U, 0xb7fac64737150f3dU,
  0xd273c6d2630fd37U, 0xef02d00b1a52ac09U, 0x160ac5f01556e3b6U, 0x1208110d18cdcab0U,
  0x12eb413d3d2fc90fU, 0xfae3cbf6f6b24bdbU, 0xcc27ecc0014824d1U, 0x1fe8e9e902c4d81fU,
  0x231d4ac34c2edda2U, 0xb7f5e9b0e4c61ed2U, 0x66243af620e2d520U, 0xdbb72c24f5191646U,
  0xe94c4540249ef3fcU, 0xdbeeaecc02eec957U, 0xab2f5bc6c40f20ffU, 0x48fdecd84077f5eeU,
  0xd9cdddbc7f32f312U, 0xef033406e9d5ee0eU, 0x381ff31d0cead4e8U, 0x8d0fc51fe7ff0f4cU,
  0x2ad8072d2baa1c32U, 0x1a23e2d6b894d6e5U, 0xd9fdc40110c6f5d4U, 0xdb021bd020660efeU,
  0xb2ae7a0582422e3U, 0x2d6f5fb9cb978d2U, 0x4318e1daedd13400U, 0xe3bf02306fb361bU,
  0xe1d2ef37fefcaef5U, 0x16d40a9fd1b9ce1eU, 0xc8c1f1ad3311ee25U, 0x41d20316b6329cc7U,
  0xb3e221a1c32cbd10U, 0x31fd06f3cc0fd309U, 0xeef224efd116feadU, 0xc2c8fbf3f30c0e2aU,
  0x1ed356e628f22405U, 0xdbbd06e4e2bf37bbU, 0xef3049de33415230U, 0x342ae81822bcad28U,
  0xacafcf217aaabfbU, 0xca113eb8afe91c13U, 0xe930051eb419bfb2U, 0x24f6a5e5a0cffe40U,
  0xfe0732d8360d0852U, 0x2b00f1f3f704dac5U, 0x13ff6e4c16ae2cfaU, 0xbb054bef324c0319U,
  0x12fef315f8e8b200U, 0x3d0212a70b0db1d8U, 0x232717f8071fcd06U, 0xd71227033932f4fcU,
  0x321ee2a40bb3d717U, 0x7fbb154421cdd4d7U, 0xc920db10adf840f2U, 0x8ec0e18381ffcd1U,
  0xf4001de7e04e0f0fU, 0x2ad90a59ddc2a841U, 0xe1c5cb1e2bfd2933U, 0xae2b27263ec2b0baU,
  0xcd2942120adedd1fU, 0x42a704e2ecf2e7f8U, 0xcf8e9202bc7ec02U, 0x20ffaecc3e2f24e3U,
  0x2fce2b19d7fabbf3U, 0xddf47104f1327abU, 0x3311fc11dd100606U, 0x2f32bad9442b3346U,
  0xf0120ae933fca4bfU, 0x2ee72c190ff886dbU, 0xd749e5181700d953U, 0xcf74ae13ae017fbU,
  0xd235b9d828f8faadU, 0xcf0d072ef6e30ccdU, 0x273467c9f74d15e8U, 0x3de24aee0521d62aU,
  0xd74e0ddb551a002aU, 0xf4254b3f01342a1eU, 0x6f7052452dd47e4U, 0x3aeaf032dae02510U,
  0xef54ffb2d6e919dfU, 0xc53016291b1624feU, 0xee621e1da0fc340U, 0x4f7eba6fdd0d445U,
  0x33e57c5111f4c04U, 0x30ed463cf742a805U, 0x1a2c0ec0100f6c06U, 0x23c704f426014417U,
  0x50fd2d81cf8cb27U, 0x8de2e32c0333e16U, 0xe2d02beb1c48c1c0U, 0x230dd9ddb7d7fa2cU,
  0x11c6ddfb12eec82dU, 0xfd060b5c3627e12dU, 0x34fb310ae81606e8U, 0xe91b352bfd4afa14U,
  0xeed1cf0a29e6fdedU, 0xe036f321e2c73300U, 0xeac2e7e8df46b9caU, 0xc0e637fb35f21960U,
  0xf3245330db4f310dU, 0x28230b17c9ec0142U, 0xeb081af420e2080cU, 0xd3f7e527e72837d1U,
  0xeee32f61ed3729f7U, 0xe4462b0ce9bc094eU, 0x2c29494f1f437cceU, 0xc15ba1e021b9b413U,
  0xefbcd22e41e35a08U, 0xb0bbd22cc9364147U, 0xe2385cc4b7475440U, 0x5ed2d1e5c602c6adU,
  0x16ebe2f85e19e8fcU, 0x4ce5e229c5d34bb7U, 0x255db0707f60950U, 0xb5ebdd07d1496a38U,
  0xd2ff3711fd0f1a3eU, 0x3529e6b818cff0f1U, 0xfde0cfe5f4f6db0dU, 0xd5c9c41c114f0edaU,
  0xffb5200d0705d0f7U, 0xb72c0becbaa4d49fU, 0xc0a056250c48da09U, 0x21edc4cc049bf2eeU,
  0xfa08303850a7cbbfU, 0xa36c93d7ea1ad9e6U, 0xb1014d34cbf2eb48U, 0xfd92efe6a53ef3e8U,
  0x2681f0d5e017d423U, 0x42410267ce920152U, 0x261b0c0bf328190aU, 0xe9a0021ed2ecdc30U,
  0x9c24209e209c0e2U, 0xa41f0a2bf9f1b2b7U, 0xced902f0dc04e1d0U, 0x1aab0b1017d8a71eU,
  0xecc2c32c39fafbe4U, 0xde14e912fbbc1c01U, 0x40bd06f3edf5fb1cU, 0xb122fffdb9cb000fU,
  0xcec6e4d3dadcee15U, 0xd42c13c51ae7bdaaU, 0xa218d345f30dcac2U, 0x471800274860e3f5U,
  0x1508ab133f13a6cdU, 0x18b012fdf50e47d5U, 0xd7ee00a539281fb3U, 0x96ba9d112ffe141bU,
  0xd5edaf15ce3118a5U, 0xcc24dbaf3e12e20dU, 0x1de20d559322ae50U, 0x36ded90e145c31dbU,
  0x2f2e5edc2dafe8f3U, 0xb7f12a2a19fc5c43U, 0xf25d6b42936f446U, 0xa12bf0073bf302a7U,
  0x3443ed0318c5f11aU, 0x44e0f8e21af23fcaU, 0xe7dcde5cf31fdcb5U, 0xeb40e1c1b74007cdU,
  0x24c41bcbcc3300b5U, 0xf61ce1ceca26f7a7U, 0xe8e0f2cc03c71c0eU, 0xf9c427e93e58b8c0U,
  0xb30e18e2d3ee1be1U, 0x38daa7f31d1839eeU, 0xfbd42ce8feeeeb2cU, 0xf2e426a23d11eaecU,
  0xb39ca615cd0df85cU, 0xca2249f144ac2d27U, 0xb6579ccdc026f7f5U, 0x10f60718a02cfdbeU,
  0x15fc47c000272e21U, 0x3516c12fb603a6b9U, 0x44134937bf2f0c2cU, 0xc63a46f31af0f82aU,
  0xf6484b34bdcd1253U, 0xc836356121ae291bU, 0x4c1ae0d93e13bee8U, 0xc84143cbbb0304c3U,
  0xc321e447e8150102U, 0xd034370847311119U, 0xf002bef8994324fdU, 0x16d5e21af1d611cbU,
  0xc5fbb8d03a6238e3U, 0x3f484efe1dbe3c35U, 0x2253630cb003b32fU, 0xec49ea04e3f3d0f0U,
  0x90cc41d0f1618f2U, 0xf383857c645f924U, 0xca11fa1c1d452c33U, 0xbc01bfcedc2ffe2bU,
  0x53ef1fd2db16011bU, 0xf5bbd5dad8d63fd2U, 0xd003d73a12e60266U, 0x3e56d8f3beaa213bU,
  0x2ee2c4ee2c42433bU, 0x3e2d62ef26d8f0ecU, 0xd90be02c1010e22eU, 0x3cc5d94fccb24fddU,
  0x21210231ec0d54fcU, 0x56331b08b64f2d55U, 0xfa024149280c13afU, 0xf5daf90fccabefe4U,
  0x28be1608cbffcce2U, 0xdeeb08f1e566f003U, 0xff3e10e0cf2f2eaU, 0x384923102e2a0f0eU,
  0xd4543d4cbadd2be1U, 0xfb3808483cc3cd2aU, 0xc3cc0715237ffe03U, 0xff513e3178af0f3cU,
  0x17c8df0311442ad7U, 0xff2deab3d7f1b2dfU, 0xcdfb59259d19d645U, 0x24295d4b04c5ce14U,
  0xd3294a0814dc4bcaU, 0x61216259f0c4cbfcU, 0xc240c646e61f5a32U, 0xa282501afc47db6U,
  0xd73f0f30020b4f5cU, 0x4e2c46bbcfafff0cU, 0xf9dc3be642001cd7U, 0x4ad951d1194c07U,
  0xab0a58bb29e11122U, 0x22c90bcc4de8e5U, 0xd1450e5f28ad1dc6U, 0xd7f31cdfbe40f9d4U,
  0x17ffdc2c49d21046U, 0xfb02afd9ccf8e818U, 0x2a6f9c9cb39f43fU, 0x24491042a5d951caU,
  0xc9e8dd40d8104c10U, 0x4324ef0f51a4fe9U, 0x3ee81e0fb4e65b09U, 0xe43f9db16b839f0U,
  0xd4253818544f0fc4U, 0xe54e88c180ef7c9U, 0xf5f91de1a1b5f148U, 0x3440e5e1041c1e0bU,
  0x303e5a1cd532f1f7U, 0x5610210803bdfc2cU, 0x69eaeef8c43639c5U, 0xbe002f30fbee02dbU,
  0x29e957142eb0c825U, 0x38f725e2cc9c061aU, 0x15ebfe20f2e5cf31U, 0x9f02c09e5f2e4f5U,
  0xc2d3eaecfe1dab50U, 0x2315c6f0fbb819aaU, 0xc809b401c6e5b11bU, 0xefd636bb280cc9e5U,
  0xfbe9130a0707fe50U, 0xde9c1f8dbe68e1aU, 0x9ed2051d01ed2f38U, 0xde2e1bcadd1bf8bbU,
  0xb21ebec4e2c1eef1U, 0x413eaf5d9bd0eebU, 0xe4dbeaa8fd0dcb0fU, 0x27f5e331ed1ff31fU,
  0xecf62ed1c2bfeee6U, 0x16bfef0adfadddd7U, 0xe5fcb9a8b1dc0bdfU, 0xce6e821ec48f1d2U,
  0xc0aefd05f2dbcf3aU, 0xdcfcb9a3c1d321b4U, 0xd1f3e5bdb604f3f3U, 0xebdad2f5e1f6d12cU,
  0x27d621a1d69e9fe1U, 0x1de3fb384dcae3edU, 0xaeb1060a3635ae0cU, 0xcaf50616114eca1fU,
  0x403e3fb416e044beU, 0x221c5fdf72e00c8U, 0x2efdcbfc11bbc216U, 0x1c211e3bedf2d2f9U,
  0xc5cc169b12ed2322U, 0x25f2dcce3ea0bae1U, 0xef110dcf19d5cb17U, 0xb7f438025c34efe5U,
  0xe15226cbbe040d03U, 0xbefbbdb319ebff0eU, 0x151bdda9ee3eb919U, 0x34e0f0068dd6bb17U,
  0xb5f214e7b8c6e629U, 0x5307edd518e5c0adU, 0xed283e16a6becef1U, 0x863203f03fddf0b8U,
  0x160aed101be5f7b0U, 0xb3bdb9b5fed8d3a0U, 0xff3fc7c8a9defd10U, 0x14c31d3610f8cc2aU,
  0xa04c29a8d4d3c60cU, 0xfb03bdcd260a0bfeU, 0x83852130dda01daU, 0xfaffe55df1d0f5ebU,
  0x6101ee0253705acU, 0xbd4141b291f442fU, 0xc3e748d1fe4a41afU, 0xf1fef8192cd611f3U,
  0xdcd2d6de0c39c5e9U, 0x58d9d36c1119fb08U, 0xd822260abd302ce2U, 0xffe107ea08ef37e8U,
  0xafeef0defbdac69cU, 0x12bc31e9d4e49f12U, 0x82dbe3fd4411dbd6U, 0x5de204150a501815U,
  0xb52ee8908100160bU, 0xf0f834f4fb0ee215U, 0xae12f60830f8bae9U, 0xb3c3f503f509dfb0U,
  0xd53ae1e40c430dcaU, 0xf7bf261901060325U, 0x2809eb08e5ebcbdbU, 0xc602e4d5273b3eeaU,
  0x29382bf139482b55U, 0x1310c60034cd1248U, 0xd3d8020e064f3e06U, 0xf7691719d22b4315U,
  0x3aedf7c4bc204c0eU, 0x316e41a3804e0e8U, 0xf7f557f7c7e81e4cU, 0x72200a448c8f826U,
  0x46125d0768e22b3dU, 0x471cc8d844a7c54eU, 0x202054f10cf24130U, 0x7f4f26294742ecd2U,
  0xdd360ae01d30e538U, 0xe4611a1ff5267101U, 0xe80736b7e5ec2afbU, 0xe35300ab1cced71dU,
  0x26ad12fd250e2206U, 0x3c2c0a1b32ce1805U, 0xe0a8cbb603c90709U, 0xe4584617511709d2U,
  0x9f102f37e841fdfbU, 0x11f7b5af1e150c2cU, 0x3d0feecdccdf7d1U, 0xf311f8e0bcddd1f3U,
  0x2fcf0902f71ae526U, 0xcfb1a2252f85030U, 0x22d55613ad37ef2bU, 0x444418ccf7c3011eU,
  0xd329411e0444f776U, 0x4bca282c1e150ff3U, 0xbf3bf9601c3e36a1U, 0x176c16f34eb916d4U,
  0xe80703cf1f102cd8U, 0xcc09f300010a0c07U, 0x855fc2ffac70a65U, 0xbf4bd452064209cfU,
  0xb9330ccfd0cf4911U, 0xe33e0719070dc5f9U, 0x9817131af7cefff9U, 0xf43e2ffd16f817c6U,
  0x3e0bcd07e507c027U, 0x50c817df9c2d3205U, 0x3f3f9dcb8acfd72U, 0x1f4f15e239ede017U,
  0x4bcbda0dfc25a42fU, 0xe348fbdcd6229d36U, 0xcae1fecbfcea5614U, 0xeb1e5f0d2720ccfdU,
  0x4f1e2e01af1e1ed8U, 0xc4e125e936ade840U, 0xf50adee6c21fefbfU, 0x37e52b2cd3374337U,
  0xce2f20ca20421453U, 0x1530c93ac33ec93eU, 0xede3d5e25aa31311U, 0xe3b7026c31461b6U,
  0xd5d5b60fbf0f0ad6U, 0x11d1bdea050f5b17U, 0xf2d323e5e1292a6aU, 0x13cbff10f90de807U,
  0x2d20360f24b0262fU, 0x18b30607902211e0U, 0x8e2c2c5de5d548daU, 0xf5b8c4ddca1e7316U,
  0xee2c6eeba14dcd6U, 0x4bda6e3c9c3efdfU, 0xecb029eb9b34667aU, 0xbdc9fe32e1cb2d32U,
  0xdf1d2e33c5bf8b1eU, 0x8e81d61cfbcbd0bU, 0xfde7f46bf14c26e8U, 0xf73aabdd38411adbU,
  0xf50f2639aefbba02U, 0xd8cadc28251cd9ceU, 0xca3a45f7c0e961caU, 0xf5291f0f18a515c6U,
  0xbce80d37ea4b14f7U, 0x4be54c3ac5d20707U, 0x25e41c4eda240af4U, 0x2c1dd681f0222764U,
  0xf5ec3b34e1c5e12eU, 0x44f5fcd2c72522e7U, 0xbf1718c0fa9b0ed5U, 0xb132242b3defcfc4U,
  0x9ab0bc2925d5cf12U, 0xfeb7383213e9ff50U, 0xa58ea4bc35df404U, 0xf01bf5ac1a866020U,
  0x47f7e1dc062dc7e0U, 0x412230d7c8600ab6U, 0x9441fe21ab7f502U, 0x2e10e3c4fa20f9fbU,
  0xf2e53837b6eab8fdU, 0x272919e2ae0c4353U, 0xb2f59debd2460cf1U, 0xac1e23df43db41d6U,
  0xd1f87a6a0942f3d9U, 0x3be5cbedbead60eaU, 0xee18270be1930de0U, 0x39efeefefa36c03aU,
  0xe4d846f839aeaa62U, 0xdc780ecbb8331a14U, 0xf61ddcef070034f4U, 0xfef912240abc3803U,
  0xd030ca45231d0ffeU, 0xc1af2ac1df141634U, 0x331de1afd1ca5b02U, 0x5dcb6ccfd391edaU,
  0xd925d71510d83d43U, 0xce06aad413095032U, 0x3b32115f8afe2e7U, 0xc2242ab2b91752deU,
  0xb01ddbe829dda0f3U, 0xcf9713dfdd2ac7ccU, 0xc1bcd925a406041cU, 0xdbc422f4bca6f002U,
  0x9a3ccfccc260f21U, 0xd308ed21d3233bd8U, 0xce4e611ede01bc0U, 0xc6d6d024d4d2f513U,
  0x4a0451f9e836110bU, 0xbdde2fdde3a1aecaU, 0xdb1e16cae1f60bb0U, 0x214fa0e2f4d4cabfU,
  0x4731fbd2ece1cb08U, 0xc0dae7dbec31fbcaU, 0xbbfab9cbc3b638efU, 0xf3b20bdad3c5d6f1U,
  0xb0b834d51ec2e83bU, 0x17fd13f0c811b7ccU, 0x1111bfe7662d320cU, 0x14dfbdfb47e924dfU,
  0xd2aaf6d7e8d32bf0U, 0x10cacddada020d21U, 0x2737aaa8f11bccc9U, 0xdbb415f0fc60f11bU,
  0x1d374b1b2fdbc9dfU, 0xdcd0010089226c7U, 0xda0ac3135ccaee12U, 0xba04d4071c2df3eaU,
  0x9f798e9bc12fe55U, 0xa8d6f799e3cc14d2U, 0x3cdf5c6f2dfecd2U, 0xd6b61c0d0feeb636U,
  0xf315b6fb00e3cc19U, 0xfadcecfabfee1903U, 0xf9e0a00c0a18ddd6U, 0xbc07db99deddf010U,
  0xffe70da5bad1ddf3U, 0xd1c4e3b70b23bdd3U, 0x1a05e9e21903cfc1U, 0xe7d10dd1a5d8d411U,
  0xc0cdd7dedacebbfdU, 0xd2b5f4b621fe00c6U, 0x23d4decceec206e6U, 0xccccaeb3c8afed0eU,
  0xecef080adbfbc40aU, 0xab2bc7c608a7dac2U, 0xf7f0c409b2dbed15U, 0xefc5ed21fde6e10bU,
  0xc504fbf6fe0af206U, 0xee150dcaf6dec4bdU, 0x161ae011fab8fff1U, 0xe40c05f6dbe6ff15U,
  0x280ed0f113ff0ed6U, 0xe61e02df36d7dc1aU, 0xc626fcd00dbf1fe7U, 0x20feaf816f4c30dU,
  0x2b3b55c3f5f9ae08U, 0x1cd905f5ef1df91aU, 0xf719ea40ccce08b8U, 0xc3c007cd1abb01b2U,
  0x20915fb2afe2ac5U, 0x42f90fbad1daec15U, 0x9340ffafed2b24e4U, 0xc328ff09e216070dU,
  0x2d095afef1c6b014U, 0x5a61cd3fbb6dff3U, 0xded9b3caede4ed0fU, 0xffcce2bdff96c8f6U,
  0xe4c3c02bf926b301U, 0x10cccb00b2dc1fe1U, 0xb9f4dc11de0323f8U, 0xd5cbd6f0ccf81c24U,
  0x51f63ffd07ebf817U, 0xb00ec03cef1fd12U, 0xd9211edbd22016d4U, 0x33ac0e17cbe3ecf4U,
  0xbac7c6f217f5d92eU, 0x3fe1a21d2cc13b5U, 0xddc3cbc10b15d2eeU, 0xd813e81ef3c1e72fU,
  0xd154efdfd81605e4U, 0x1cca32e103a82a38U, 0x4bb0b2faff9f14e2U, 0x315f018cdcef349U,
  0x43defff5f1cf283bU, 0x3b0bdf810441f8adU, 0xb90270323f4e204U, 0x36c4381116069b6eU,
  0x27380c13fd249ffdU, 0xceeb5026baaef3b9U, 0xae52cebccbecf19U, 0xc81504ddd425b919U,
  0x491a04bff4e14e41U, 0xc5e1e69b2414f882U, 0xcc22b8d7d4f793feU, 0x51bb9c43abe6c517U,
  0xf4a7e4c33ad5dc16U, 0x28374711f2e2dd26U, 0xf6ab37eb25c0f749U, 0xc300090ee6f22916U,
  0xd8ecb1fe0fa30d34U, 0x5341bc210d3e8daU, 0xfb2f19ffd8e1fa49U, 0x141cccf8ec042d28U,
  0x3f2528e73b3a28d7U, 0xeef62cf65bcc24d2U, 0xeb2a300cd7fe0419U, 0xb103dcd2e8fbf44aU,
  0xe40de0bd9e3130dU, 0xe129d4c01f152bfcU, 0xf93d010bdcd9ec1aU, 0x21a29ce04bf2007U,
  0xc8f3fe412a3af235U, 0x25dd28f129f1cceeU, 0x4e2ee3cdfc72960U, 0x719c44728233457U,
  0x3df5050ff8dbfb4cU, 0xeee0d4e323df071dU, 0xeee622db1cd5ff1dU, 0x1d150304f1272ffeU,
  0x43e7e237052e4300U, 0xf83d1f12ecfc5ae1U, 0xc6ea0ff8fa1d0437U, 0xd2ec21f7d8f625U,
  0x13f9f54314d6bed0U, 0x403eeaef1ff8fd04U, 0xf2f6fbe8fc290826U, 0xbb360a10cfcc1b1dU,
  0xf82ac22a097ff701U, 0xf8f9fb1e19fc0ef7U, 0x4f902d0e540ff20U, 0x1df7e00627f0b5ddU,
  0xfcf8d71ec7fa1e14U, 0xdf34ef1c061a471aU, 0xc1a3ecada071f2cU, 0x23ffea05d2271728U,
  0xc2de61ccdd13f2eU, 0xbcc7e4242d111fc2U, 0xe01d1ff4d1001024U, 0xce31acf6215f0b33U,
  0x260ac13a1722da64U, 0xff04331f8d2ebe8U, 0xddf50bde05fa3b2cU, 0x3714feb1c7fae816U,
  0x1dea0dcc2317ca05U, 0xc22cc1722f400fcU, 0x44f1c0f408e54e48U, 0xcb02e923d743ea23U,
  0xbc8d8b8cbb7c651U, 0xda26d31af9193ab5U, 0xd9ca26f732b91cd9U, 0x1a45e90015e71e13U,
  0xe0b7fd33c010ff09U, 0xc2c8ebc9fa21e334U, 0xf31625f3e41bed21U, 0xc5f23024410e47fbU,
  0x33250813b82b1d37U, 0x224f8f70defc6eaU, 0x10dfad03efe3120dU, 0xf440d9e2dacd46bdU,
  0x27b0fefc0ae10705U, 0xfd0edfeecc2037e9U, 0xcd280720da3e1d44U, 0xd1df2fe9011a37e6U,
  0xdee603d5ce13d61eU, 0x14fcce2bb2e4f0efU, 0xd9ecf7352ae51bdeU, 0xe705c126c9ed100aU,
  0xfefe09f8eafc0fc7U, 0xf8dcfb1e01c837f1U, 0x1ab1c7ede7093a0cU, 0xf7fc2deb2dee16feU,
  0xb8f432341647229fU, 0xc31f1c210d12ede0U, 0xdc0ade220a3ad602U, 0xba22d3e5210125d5U,
  0x3d030f574b2c46ebU, 0x456204df07723e3U, 0xf2f3d5ce3cc6d362U, 0xa1924eced120155U,
  0x7d4243af55bf609U, 0x45494e270942bd35U, 0xdd5de92424ed0506U, 0x314332f209feff03U,
  0x10b0bf80a670e13U, 0x333dcff97fd71be6U, 0x262506e1fcd936f7U, 0x1bf3c33e2c1c030dU,
  0x3638df0fdb06d8f6U, 0xf1da5020f70fcc54U, 0x502702fb1c2b0d01U, 0x2b0917c43c053ee7U,
  0x22011e112b490bf2U, 0x24f4ef2bfa0a191fU, 0xfa28b91e1013e801U, 0x141ef6f90ee20617U,
  0x19d72618c1f4e9d3U, 0xb703d823c32cfc3eU, 0xe7210dc6ebd4d6f4U, 0xf6d400adfdc6f008U,
  0xfa08040cec191e28U, 0x2831ef1a02243b15U, 0x32fdec0d3f02e61dU, 0x7faccba1becfaf2U,
  0x4ddc0af6eaeb4907U, 0xedaa23e8dbe410d6U, 0x31eede4512123659U, 0x4efdc1f92c1939c5U,
  0x929ef1419dcf900U, 0xe12dc42f2bef3413U, 0x5304d6edd7e0d000U, 0x19d03702160915e8U,
  0x31fee3dbb7fc0bd5U, 0xe43d3510db2cad43U, 0xb20a3df5b90127d9U, 0xe5fd100123df11c1U,
  0x36f3f4b2b6e7e20eU, 0x5e6dce004471542U, 0x7bfd620330e330fU, 0xd3ec06ecc6cd2fcbU,
  0x2200dbd8d511dddfU, 0xfb04f5d8ab1af1c4U, 0xd7fa154ec5c1ebe3U, 0x1819e2c71cd41a1eU,
  0x722fcefee452d20U, 0xeed1ebfc311f2342U, 0xdceb1a1f15c5fb2fU, 0xe4fd33e1ffcf37f3U,
  0x23a370bba052724U, 0x44d3c623d9d1e5f9U, 0x1ae40020da1c03e9U, 0x647bf422b2721c7U,
  0x33ed1df90fdf2ef3U, 0xccbbebdb1837f5bcU, 0xe335efc4cccff8ebU, 0xdb2a0ecc481f0603U,
  0xf3e11504fdf8f541U, 0xd1bfca2be94ee6dfU, 0x10dcef1cdb0dcd38U, 0x5222c0937e948e3U,
  0x17034d199f271629U, 0xc716edcbca312525U, 0xe7db08142bd93d2cU, 0x1cdbd22e3bcf2bfdU,
  0xd10bff54ee0ecdebU, 0x11d125efb4072000U, 0xb4e3e0e4e204b9e4U, 0xc938c6bfc601d32eU,
  0x3a0ae81156001d6bU, 0xd6e361f828130cf0U, 0x5df036b5305238f0U, 0x80809170d08dd03U,
  0x4d48eceed43af6eaU, 0xfce2e5134114cf5aU, 0xe6f5dd2cdf102251U, 0x17046edf3fb53cddU,
  0xce1f0911065428d0U, 0x11683eef0c490d24U, 0xf3ddcde120d6fae5U, 0xdc3eec231c0d27fdU,
  0xf837d134c5e8d7eeU, 0x35b0f94d0811aa32U, 0x29e5a74a0ef1360cU, 0xc1371400e6293ee2U,
  0x43b522fc61283127U, 0x1b194bc7d54df4eaU, 0x21cb02b708c6c833U, 0x80b005e23fc383eU,
  0x3748230aeaf4fcfbU, 0xeae9b128e953bf27U, 0x3e91509140bf918U, 0xb0e1dcd52918efc4U,
  0xd125f0ffdbbee3e7U, 0xcb16e920fc012a2eU, 0x16cc4a1802dd0822U, 0xfdff0808efd781d7U,
  0x54c1f8135526c22aU, 0x10661df8c72333d4U, 0x28d0105e098a2c42U, 0xfe0bb2aee81d1c37U,
  0xcb3af32fd71ffc16U, 0xf9d6c3f7dbe6fec4U, 0xa4fe09ea0feb271dU, 0xdbfeab293f08bffdU,
  0xdf0bca163de615U, 0xf0dd4b1f0921724bU, 0x45103ed8950ce720U, 0xaa0b15e6f22de40bU,
  0xd221fce901c8bf1cU, 0xa1e11eb508ea3747U, 0xc1f0e00403b535cbU, 0xf7240cbbc240a7adU,
  0x250cc2c5e0fb1707U, 0xd0bc48dfadebfcbcU, 0xed000019faf50fa9U, 0xd2dc0bfced0fe127U,
  0x39e9daddccd42fbfU, 0xc42e0de8c319183aU, 0xc50f3e36053bde50U, 0xf4a7011a2dbd19a2U,
  0x1d32402710efd535U, 0xe9d2d8192f33f500U, 0xd7071046f92ca902U, 0xf2154ee50ccbdaa1U,
  0xe4e927f929fb621dU, 0xd1713c309160225U, 0xbbe92716a02e23e4U, 0xd9bd1c58f2200415U,
  0x11e4f00df626fa14U, 0x2dbbff2de4fdc505U, 0xb0c8032dfd46c50fU, 0xf0fcdd2934d9ddcfU,
  0xf3d92c10053cebfcU, 0x180bce4bc63ff8c5U, 0xef1a13b0d1111dU, 0x91290f14f1046602U,
  0x2742f450a22bb6ddU, 0xf8f9d6eb0454eb23U, 0xef87be2e5a5cd2ecU, 0x321e27cbe8f2e894U,
  0x10be2a02c2ddb149U, 0x1e1db41cf8270cdfU, 0xd5ec440bf5c32035U, 0xd1b054f729248cecU,
  0xee14391514202031U, 0xc84a19013cc330c8U, 0xa836c40ec34419f6U, 0xdec8111918220021U,
  0xe3d2df30131faa0dU, 0x1c05d2e4c2dafbe5U, 0xa4019d9f1befdf2U, 0xe291ec10b1e241fU,
  0xc1d90ae9babf06e4U, 0xfa2e5327e1e671aeU, 0x2dbfdd460521e51fU, 0xa35c2752494fffeaU,
  0x16fe301da92bca39U, 0xdbe10d35b84010eeU, 0xe37f3a0f242258efU, 0x31f5329d5cbc08b3U,
  0x24012b3a0ccdd802U, 0xdc1741095b02d0e9U, 0xf2e7ef0333462ba4U, 0x27f62de1d8fc3d00U,
  0xfed211545303ce21U, 0xd3f84ac4e6c1e55fU, 0xe9295dd8f8eed0f1U, 0xda69f5e41707ca42U,
  0xcc066dcce63d3447U, 0xdf3120be39de4b1dU, 0x13e5093715e7e4d1U, 0xd6ca181657233127U,
  0xdf2418e10f0e2d4fU, 0xc5e235fb221af35aU, 0xd6d9d930b44ebe4cU, 0xda4d2be221d0d519U,
  0x2bd0f53f2bd12b13U, 0x432baaab4b2001b8U, 0x27da4526e7f20fe8U, 0xdfc4eef330eb0736U,
  0xcff5e2c0de3ed335U, 0xd74be7f2fb32f542U, 0x16ba4414326d5be4U, 0xf701242179042ed5U,
  0xecedb018101bed09U, 0xc3ebb6f4d35f53c4U, 0x1466ed3e5ffcdd38U, 0x281cdbe935291810U,
  0x13e548d9d9d80756U, 0x14d91c562208153aU, 0x67b93b451e1b16fbU, 0x4f154ae274e5fe40U,
  0x27e2f837af074cf0U, 0x611438db4739db7bU, 0x2def00210b43e03fU, 0x21e64b024350e86aU,
  0x4de0e0e924c1fec0U, 0x57005e51eccbea68U, 0x2f1e2f176fe65401U, 0x452308fceb36dd0dU,
  0x16632e01de18d36bU, 0x6e28f3c7cf3c35dfU, 0x1639577aba1a2c3bU, 0x2209581b523f3b53U,
  0x4df2b31db49e201U, 0xe4120aced926e245U, 0x42d9510814fe0511U, 0xb1f3d30dde20f525U,
  0xb838b3b32f16cccdU, 0x32c8fdc9f3ece011U, 0xc0fe41efb7c74ac3U, 0xd2cc95e15414f41U,
  0xf50c1e0d0be4eefdU, 0xedf40b1b270db60eU, 0xe5394be8dc09edbbU, 0x472f25130e0b3ff0U,
  0xdb19e7d814283ef4U, 0x19f2d2e815dddc1cU, 0x61b65516170edbf9U, 0xf32f04351fbc1e18U,
  0xf1fc37ba13eafff5U, 0x1536c49d41aee3cU, 0x1ee4b0414f290bbbU, 0xc8d155fbd8e1ffd4U,
  0xe0dc3d1420de75f9U, 0x31f2261460320ed2U, 0xfeff001ef337f100U, 0x37d52703e22828d2U,
  0xddf9d4213c1efae7U, 0x21361b22361ffff2U, 0x282c542737ef0839U, 0x2367dda10327d921U,
  0xdf5329edf2d2ecf8U, 0x125ed1107ff312f9U, 0x16661ecf3747261bU, 0xedde6525f40e063fU,
  0xe3e425cfe9d2e0bcU, 0x2c4300e12f0ed2U, 0x2fe4f008d5e8d5eeU, 0x142d1bbd1942b321U,
  0xe52ab01fccf411e2U, 0x4db09e91ef31235U, 0x232a75ececeece09U, 0x250715d64e13f1c7U,
  0xd446ddddc40219b4U, 0xe9ba30f424dad72eU, 0xe0e119b509da3f2aU, 0x30190aef09caecaaU,
  0xf21ea4e2bade33beU, 0x14aac1d613e1c90bU, 0xc1d0decdb2e3ab5U, 0x433131f7d5e7d0a9U,
  0xf9d803d7c80abcceU, 0x9b7f029e222f127U, 0x1e0827f041c319d5U, 0x2def0f231afee410U,
  0xe176e7ede6265c15U, 0xe3e321ec200d1e3cU, 0xf86136fae30e4fbbU, 0x39cdf5f707ff31dbU,
  0x101e21edcf2e01c9U, 0xfb08f93ad5120227U, 0x1b21f6c8d5af1df9U, 0xfb0713ce0e0c18fbU,
  0x809ede82e4700f1U, 0xf105b8fa1b202d29U, 0x31cd11242baceedcU, 0x30b9fbc611484408U,
  0xeb2be3001312d3c9U, 0xefcef4c1a4e0aeb9U, 0xb4461affd708f4d7U, 0x1fd6e00ac6e7dc19U,
  0x2bbdc400f3ed1e42U, 0xeed9b8efdb423ab1U, 0x123a31b60c0e1641U, 0xdde8d5d12c1dace0U,
  0xf836eff30139e0b3U, 0xfd0ce22c0b26d308U, 0x164404062dd2d5b8U, 0xeaebd0d22244dde6U,
  0x23020edad911decdU, 0xfd14f0c1133b2c24U, 0xa53c1bf0082c201aU, 0x15b8f70ec32cee26U,
  0xff1cf4d6034113dfU, 0xedfcfa53ddee3bedU, 0x3024000dd5541e18U, 0xd5e81f3832fc3921U,
  0xbcb5fdfa725d4e0U, 0xbfebce54629fb2bU, 0xf6d1cee1ff20fbf7U, 0x15e14ef627f7ce1fU,
  0x1dd1f903f01d13ecU, 0x3def0ceb00fd070aU, 0xad6133be90d32deU, 0x10ff452d24ebe439U,
  0x1e3445b1f7ca41d6U, 0xee2bd0e6e92c2428U, 0x5e5fbf0373319bfU, 0x11db40b423e214f7U,
  0x3ed9c012010c2015U, 0x3e1438d1ef262e2fU, 0xe4c002fdfcd5001bU, 0xff11210afb14e30bU,
  0x531fc2dba1820e4U, 0xda1cd8f0db1efdefU, 0xba0010fd06d52ebcU, 0x221e09de02d92adbU,
  0xe707f143da43ebe6U, 0xe6d7d1f8d3180beeU, 0x17ff01dbf902280aU, 0x2dc80406f704d4f8U,
  0x1c23b3e3f035cd49U, 0x27194d06e007dd1eU, 0x29e4381703af3026U, 0x1e001debedec3b1eU,
  0xdfe408450f0c1eceU, 0xe2ef304b27060e07U, 0x638bd0ec82ddb15U, 0xcd4620e005e2c21cU,
  0x1708002db413081eU, 0xeef649dde1ddcf2aU, 0x1831151e17fa0916U, 0xe8ff10b3de20063dU,
  0xda3421060a1112c8U, 0xf216c4f7ec2e0c3aU, 0xf6eef113fca82243U, 0xfff02417f0f7d8f8U,
  0xee350512b72e1aebU, 0x21d709f9ef26081fU, 0xcd1f15ced6f54e21U, 0x10e9ede2e7db05c7U,
  0xf2213d3f3deeecf3U, 0xeedcc5e509d606feU, 0x2e1ee2fbebd6dfe6U, 0xcb18031e02bf7f0eU,
  0x51d2104b9281a38U, 0x11fe3f58ffc3f944U, 0xa9e5ec3c0ddb28c7U, 0x12f5343334e9502aU,
  0xe2f00147fe232ac5U, 0x2d17b92e26320befU, 0x21f202ffe7d2f733U, 0xf0a021afa1dea36U,
  0xd5f0f6cf00ca1f3cU, 0xfd92b26d827d600U, 0xc00fea432d15304fU, 0x1fccfe1740130bd3U,
  0x4d1ee1fee3204616U, 0x2be8e325d0eacae3U, 0xccb0e205d7281134U, 0x1c32f4e8ddce6244U,
  0x8ca0a1ecaf932e1U, 0x3b35fb390323f5f6U, 0xbd13beff1cbd0c26U, 0xb5361be82ffa00d8U,
  0xdbc462823342cffU, 0xec12e51020252322U, 0xe907e2b0e6413032U, 0x2b1420dc4bac5e4eU,
  0xdb24df5525eef2dcU, 0x490f23181b69e9e8U, 0xe20a2da6d23918edU, 0xeef4ebb42cdcd516U,
  0x1e1b040ffbcdf155U, 0x9dd30021ac0f232U, 0x45dff9dcd9d70636U, 0xf0dbccaa13d1f1dcU,
  0xc8351ad60715ddd8U, 0xfb4009f308ec290fU, 0xf5cdcdf0cddafc12U, 0x1857dc0341f6cb42U,
  0xd93903e7cd4513f9U, 0xaaee28db0d1926f5U, 0x48d405bae814fb63U, 0x9085efb11c5e9f6U,
  0xcfd61ae3a901d70fU, 0xddebf1cc59dfd21cU, 0xdbef58a2dd01d1d5U, 0xf3fdeadbed063f28U,
  0xbf7ae58fb22badcU, 0xc338cc1d03c7d039U, 0xec3237bcfb27d9edU, 0xdcef29da219841c4U,
  0xe64aeb17da451933U, 0x46f2151e0a1ad814U, 0xb67f1d53ebdd4954U, 0xf12a3722edc36141U,
  0xfee7a8febf16e634U, 0xdf0dd5cbde404d0aU, 0xcac0e0eafdd7200aU, 0xa1bd708fce61e05U,
  0xc140243fd23f423U, 0xc526ecbd0f22f8ebU, 0xb155f8b7a618f227U, 0x24e91413191d3401U,
  0x33dd1bed38c3d0U, 0xbb00bbdc4df93230U, 0xf798ec0bc50d0924U, 0x29eaf10c1713d3b4U,
  0xfabffd05c226b4efU, 0xe08d02cebd61942U, 0xdc54fe0721f2ea61U, 0xbf091cdd0ee607d9U,
  0x33b817cf2a57693bU, 0x2accf1e5e1cb4b7aU, 0xfb06fe07dd1f12deU, 0x41d2caad4dc2cf3U,
  0x25494a67ecf53337U, 0x133c5929444116d9U, 0x3e3ebbe7dc67f775U, 0xf12ae2f2e6d0211aU,
  0xd6231d9310324c04U, 0xcd0806e1c1abe714U, 0xfadb3efb18310f29U, 0x301fafeef4cb150dU,
  0x4c2032f8e3121510U, 0x3564f2e5ef0604dbU, 0xd8e4de14132ab339U, 0xdb051cd29945430dU,
  0x2ca07e6dfd524ecU, 0xedb423a8e4aef134U, 0x918e4d0b7fe6208U, 0x9aa6decbe3e0200eU,
  0xb9b7b2082e001101U, 0x24fbe207eb2cbebdU, 0x321ecb2acd00390dU, 0x3531d3cd0730f8d8U,
  0xaed80134bff9ad37U, 0xd816002a37d04016U, 0xfda6fae1c2bbebe1U, 0x231737d04efb18d1U,
  0x92b513f6f807d3ebU, 0x6fcebced8bc20cbU, 0xf7d105f1a512ad2dU, 0xdd1bcfe1afca1ad6U,
  0xb2ec250bd7c4abccU, 0x2a14db052030eea4U, 0xe706fbff56eb1b11U, 0x1704c8e11f2a2be3U,
  0xe60516b216fde722U, 0x960125e7e80afbcfU, 0x9dfbe10ddcbcce10U, 0xe4db0ff321c2e1afU,
  0x37de2a9ab9cff208U, 0xf8dbaa2ffb2ca8ecU, 0xf82ae526253a3f1cU, 0x55a6eebd45a729cdU,
  0xe41dfcecd1a282f7U, 0xe544bd1bbcc00c00U, 0x9bdafa1be310fb38U, 0x36213a21edf8eb58U,
  0xdb0211d11ad734f0U, 0xfb410a3fff32c2bdU, 0xddbd22b924c74422U, 0xabbe3a5a510ff3f5U,
  0x30dc7d100e4c4e2U, 0x4ed8d9ecaadde00fU, 0xa82d1812e53dc1beU, 0xf01b48ff2711043cU,
  0x2dab14032a1ffdcbU, 0x7a14accd246d0b9U, 0xe4b0daecb6127664U, 0xd10cfdfc3af205abU,
  0xe10fd33a05d1dee5U, 0x10c8d303b124cc1cU, 0xa0f1e5e5e2bf2508U, 0x4500aa37b70830d3U,
  0x26054506c6d8ed11U, 0xf6b9f4dbc826fde8U, 0x960a02fc3428f42eU, 0x20e412023097abc2U,
  0x23bf840bfd260d18U, 0xbcdf8f7b543d41eU, 0x832f2bfed531e8ebU, 0xc4be310ee312d817U,
  0x1eccdc2d4d20d74eU, 0xc728f3eb338ff905U, 0x4408f7550f4e0a1bU, 0x1c4719eb38f35819U,
  0x29d305bd1d9e5f3aU, 0xf8e8ebf5164dd3afU, 0xeb36505a8107f049U, 0x20bbc0ed22d5ff19U,
  0xb80a13dee8ca32f6U, 0xd5a9eec5df01d4b5U, 0x481eee12b1005308U, 0x3fe5341f4707aa03U,
  0x5632843e0cdaf542U, 0xd65225d0ab1316adU, 0x1f1331d0fb061a44U, 0x4dc9ef3e2f423d55U,
  0x201d1dd3070eb018U, 0x1010f0fe0590ead5U, 0x74ec22db013c3238U, 0x2934bdfc1ef5054dU,
  0xc19eb9f50fe84bc8U, 0xde73a932a32df5baU, 0xf0aef11b1a1209f3U, 0x3e321b38fdabf446U,
  0x4afb26efd404d1d9U, 0xd39b0922b50dedd4U, 0xd715d6e5b3e5150cU, 0x1a170dcfa112bae2U,
  0xb40fd5161e0cbbebU, 0xd2f3d135afcccbe7U, 0xfcad0abab1f3de3U, 0xd0f7ebb8bf14044bU,
  0x21eff40d38f2f9f7U, 0xebb90ce003f820U, 0x40df0f271321fe31U, 0xeadd35fc0cb1e5afU,
  0x9ecc9f615f5edd4U, 0x23d602c3f8f2ed24U, 0x46bedbe6efced0e0U, 0x2ebd04d4ffbb56e4U,
  0x1cecfd4324e532f5U, 0xa70c010e2c1b4e0fU, 0xe1b941f6e6dd120fU, 0x24330fd333f42cd2U,
  0xf4a706f1e414e345U, 0x36204451fc1048fcU, 0xf7bbb2f21fceff27U, 0xd337e41f44c64949U,
  0x13363c31ab6c2f7U, 0xc5b6b69bd5c5cc11U, 0xc1d126cfb7c84814U, 0xe90e2dd813f7d5fdU,
  0x23e709d551d52708U, 0x15f63b15cefdf944U, 0xb00ea914054a13bdU, 0x1fcb0fcec0f7dda5U,
  0x3cbe2d143313ab28U, 0xc0243002e4bc28e6U, 0x4230190117e93351U, 0x314ecbf428e42503U,
  0xaf322f00c72fdf05U, 0x592a21d4f1d02b0fU, 0x7cb393d1f51081eU, 0xf8f3f0a12f181a15U,
  0x32f3042a2767f8f6U, 0xd9581f354109d918U, 0xcd02370c12cad0c3U, 0x50e9f709b51faa32U,
  0xbdf0f22bf5e3b848U, 0x19d3210848cfd704U, 0x2bc62ffe175a2cf4U, 0xc2ed9411ac031baU,
  0xecf0081946f5da1bU, 0x15013de90159efd0U, 0x39ec10055cb7f5d7U, 0x442edbf1fa2a2bebU,
  0x84123caf61a33f7U, 0xbd48bea87320e3c2U, 0x53f83524b20a31acU, 0x4b937920d941e113U,
  0x283b2c3f35f64d7fU, 0x17f20212441fec3eU, 0x48fb6db912fd6050U, 0x14f42ef2c8e010f6U,
  0xea703ee9c209d81fU, 0x250e31fee9fdd932U, 0x3066260442ee521fU, 0xf63c095d37064bffU,
  0x11db4af9f7f7d51fU, 0x1f2149d2db0cf008U, 0xc02854d6390b65edU, 0xdd5448fe459e22dfU,
  0xed39bd150caf3c42U, 0xfe02cc26e6dd4307U, 0x14ee2f55f72425d7U, 0xcdf23edd040062efU,
  0x350d35be22484ddeU, 0xb95804ebf0da55f9U, 0x2632daf30bb8e63cU, 0x371191820f94cbeU,
  0xcb343a0124d26fa8U, 0x4b12af3435391626U, 0xba2206fa341d74ebU, 0xe10836374529361cU,
  0xfc0d12fd161b53d6U, 0xca1ce43d1839f8d2U, 0x3be8f512cacd025aU, 0x3f2f44d25a0b0da9U,
  0x6f82016d6fa32baU, 0x1b33dff5fb5cbe81U, 0x29af41313fbbd3bdU, 0x564b345c0d16fcfaU,
  0xe1440b3d1420fc27U, 0x32656e416d4c8faU, 0xe4ddefeb0ba8151aU, 0x39485619d2f4d50aU,
  0xe0959d4b2a600d8U, 0x5fb9232dcf3167d2U, 0xd5166211eefa0adeU, 0xeddb54385420fcecU,
  0xe3041741c5fc1cbeU, 0xbc7fd14b5e22a35U, 0x22362fe102ded71fU, 0xde4ddebc4efe1116U,
  0xcc13d3d9c32f02c4U, 0xe5bdc3320462fff8U, 0xf347ecca39954e90U, 0x1413eb35d1bbe807U,
  0x19fb0129b727e649U, 0xf835c41b14021adcU, 0x24dc12c5e51fc8deU, 0xd3bb37f44114f01cU,
  0x2533c1150b96ce14U, 0x3f11f4e6ba4f2ae2U, 0x2eddf61512ad1513U, 0x3ae93110ee1e0d01U,
  0xb7e9cab3d6afe206U, 0x13fee7ee21e0d302U, 0x1abff9db2cc0ee15U, 0xb5d8f49d3f250e05U,
  0x7059f929ff1c2507U, 0x1cf6c3426c1b9510U, 0xf591e293bc9c95eU, 0x15ec2bd322f320c8U,
  0x1b0b30e53919ef0fU, 0xa5e2c902cbee2c3aU, 0xc4fb16e800c1d62eU, 0xac089a0ce505d301U,
  0x380646cdccb208c3U, 0x3af9f735f446ecc1U, 0x300e1e3b24b6abdfU, 0xf7f63ac5e4baa3f5U,
  0x1a3be5b1cae1ecceU, 0xb5ecc7cdba0ff1cbU, 0xd1b5e2e5b3dc24f3U, 0xbfefd2d8edd807fbU,
  0x25f4193df824ffb4U, 0x1ee5f7d4be0c0ee6U, 0xdc4f9c10dede61dU, 0xf02dedecde137a5U,
  0xf80c270c47ec171dU, 0xc190c30a2c95944U, 0x300510a7d2fb353eU, 0xec461e0cf124f0fbU,
  0xf6f10acdd4e700a6U, 0x542db90a18f6bb45U, 0xeaba07fc071c2252U, 0xb9ff2924bef3d22cU,
  0x1abb05f507f43fefU, 0xa09141c62435801U, 0xff3c3df24d63c3eU, 0x6d6c903ca0a2245U,
  0x272066c6fe405dd8U, 0xf507510c0c0e05fdU, 0x20cdcfaf3343f0efU, 0xb92f23c12d393528U,
  0x580bca4002d356c2U, 0x202c83760deeeeaU, 0xf834043710ded7bbU, 0x7feaba22fb0af728U,
  0x3a17451658701157U, 0x2140f838ee223f2dU, 0xf719e51f15e4a8faU, 0xa633124fd9eb25faU,
  0x1102ee01e2e44a18U, 0x12d33fffe772aed2U, 0x3bc9c20a44dfe610U, 0xf5d5faedf268e5caU,
  0xdce2d9d3d920f3d7U, 0xdeccc9f52f16e843U, 0x40c4ccd2df232716U, 0x34fb12fbfa25c4b4U,
  0xc52110261bea2128U, 0xb4dedbc10ec5bc1fU, 0xa8123b3fbcddeadaU, 0x24e90ce0dd405634U,
  0x2ef80640274519c4U, 0xd0f52af30faade04U, 0xcd7cfe50f012c30U, 0xf3f117c8aea556bdU,
  0xf5d1132dc6ff3d05U, 0x9440e8ec453d2d0cU, 0xe317dc0a8dd7f33cU, 0xbaf4f32e1727ee47U,
  0x260e32eb0c4330f6U, 0x2df7c235e8bfabf1U, 0x5a00d14aebe614f5U, 0x144f2be900c62609U,
  0xfed2e4eba8c4f9b8U, 0xb6f7ba1de116e3cdU, 0xabd8cefdb211336bU, 0xa83abd1512d811c3U,
  0x2eaaa063401f70aU, 0xb539f9c4f1b521ecU, 0xbb2e66cfe33c7d9U, 0xf9e2dad41dea3296U,
  0xbacc2df6f1f53112U, 0x2ef8ee1ffc050722U, 0x5264eebc930a0f9U, 0xe1e0de0022acf8fcU,
  0xe838d6d4f8f7451fU, 0xdefa4fcbe7d7ea47U, 0x17e1b1070e3400a1U, 0x1c292ce7e5fee1ffU,
  0xdd8ea3f0fefebfaU, 0xf04607eb2bfa13bbU, 0xf6da2515f4fe0d19U, 0xdd2ebaedbef1fc33U,
  0x472bf6fad11537d2U, 0x9816eac6aacdd912U, 0x29f9d8478a051dd1U, 0xf013aaf8d3192c0eU,
  0x13b905d2be07f208U, 0xc10fbad8e6c918d0U, 0xae43d0e1e71c01c9U, 0xfdf5d902170ee3d8U,
  0xda361a56ba1db5f9U, 0xdfe637e1f610391aU, 0xfe9d021bfc240501U, 0xdf24bdd4b4ecd82cU,
  0x5bf0ee945fce219U, 0x12bbdd4ef4cdc1dU, 0x87f1218e9f1c12cU, 0xc16c83eb6fe22daU,
  0x3ec22540b93f3847U, 0x9dd565fdff9ee2aU, 0x119e3711ff4bf2ecU, 0xc0cdd30a1dd4ece0U,
  0xae9edcfb81714deU, 0x25d035d8363342f8U, 0xa4f09be3d61100ddU, 0xb7d3df13e6c80a37U,
  0xe5c2d8cc3563c7e0U, 0x22ce252ba2c4f624U, 0x3c718292413eb3aU, 0x81ef6dd30fb3317U,
  0xd6c4dbf2fd3b0fU, 0xcef93024ef0c37d4U, 0xb26e2dab3e9bf3aU, 0xb64a2b0cd44fd419U,
  0xef0217ec081cbbe5U, 0xa340f3d0d0f1709U, 0xc323ee2308273d22U, 0xf12d0de744f90403U,
  0x1a124ce80f550719U, 0xe9e002c4d33b1e06U, 0xfa1f3b323133eb13U, 0x34cad7e7b5e0ce5eU,
  0x2cc44aac2724f2d8U, 0xbc8fed8eb1f2003U, 0xaf1ccdf3e08cd22U, 0xdf024ac336151911U,
  0xd2135304f028f204U, 0xf173303f01bfb2cU, 0x2b0cc5f4b7ef3b4fU, 0x33cc37b1311d4f4fU,
  0xf5e7f6e56b4c2249U, 0xbf40106f4d84925U, 0x700d73ac726d8ddU, 0x17b1f20bffc3eff5U,
  0xf108503d5c2ee4e3U, 0xcb1c001fd6faf00cU, 0xf8f7e6c1fad63024U, 0xd4f3f8f72612e12eU,
  0xb21f4030028150eU, 0x3952c108180f542fU, 0x1e24410ddd1ae1e1U, 0xd133bc101cd6e3cdU,
  0x3d4ac65c1a47fbdaU, 0xde1b42bb402b35d7U, 0x3ce9e004e9eabf1aU, 0x35fb3721f7da4610U,
  0x275af213d326d5U, 0xf62c40edf8380138U, 0x32edee3d3dd2eb3aU, 0x4bcb011ecbc51a0eU,
  0x29dcfaff2eb3ccecU, 0x2435e7dffd40d1eeU, 0x3431d22b1846d9efU, 0x21cf1900a6ebf4c2U,
  0xffe00b1cf7202d1dU, 0xfedb3a1ecbeed9d2U, 0x4121efdbfe20214bU, 0x2ffd0a34110e113cU,
  0xf64dcff93846e215U, 0xc1d01cf1d5effb25U, 0xd7e9d1e00f3526f2U, 0xa5e8212004b90c4aU,
  0xe5db1edbf9292139U, 0xf7fc1e19c7bbe214U, 0x2e370d4943ff00edU, 0xda1f38ce3ae0ff55U,
  0xddc7cc0722dbe70fU, 0x92d9f8d1ebccefddU, 0xe20818aca53b0c3eU, 0xef1cab0eaf3841e4U,
  0xbe1a54fe1952ae0dU, 0xbf60e14fa61a59e7U, 0x99a061de33f36dfU, 0x26468cc1dae12cedU,
  0xd421f1fa1210f232U, 0xcfc2e1d9d9e8ece8U, 0xd6c220008bc312ddU, 0x2fdc3733b4f6d9c2U,
  0x21e0e9fc142d20d2U, 0xf1caf1d10decebfeU, 0xc80dde79ae05dfe2U, 0x3398ded29bfc27U,
  0xe63ed2470bfa1ed5U, 0xadd2910d211fcff9U, 0xe50417cb1ebad92dU, 0xdca7b7c5bcf2fa48U,
  0x142d3b1653ffdb24U, 0x1cc64b5c9b1ec93eU, 0xd1be409c27df3ae3U, 0x9e19fe1cf1085714U,
  0xf005991cb4d7ee13U, 0xef0ac514ebe2d14bU, 0xe043bcbaae3802cfU, 0xac47cc45bd0554f4U,
  0xf123e4321d2ae933U, 0xfc085561dcdb2111U, 0x24dcdbd33a2bcbebU, 0xfde1fbfe6e11ce1U,
  0xccdcaf1fe5f744ddU, 0xdada13e2423451d4U, 0xfbce08f4f9b4d1bbU, 0xb202efea19ba1a3aU,
  0xec4ee121db622dafU, 0xbde70a6195d53554U, 0x2a4091d72636f1d6U, 0xf3cfda9b2efb3120U,
  0xd89ce9be40ddf933U, 0xc8da0a0307fdeaddU, 0xcc4006f4c9c2fbd1U, 0x1125f5bbd51b5c67U,
  0xa9d3fb2bc160a3afU, 0xf802fe27d0d63138U, 0xc2c0ef084728f31eU, 0xde00d8b5db183206U,
  0xccfa5173633ce1cU, 0xd7d0feee14dd04d2U, 0xc31610f622c6c5c6U, 0x8c446efff2ed831U,
  0x37d8d4cef703d7cdU, 0xd82a61e5c2ee72f2U, 0x1925bdec130612d4U, 0xa12c07bae6dcf1a8U,
  0x3beaf5ce081f0932U, 0xa20deb6ee3ffe1fU, 0x2efcedf01f10ee07U, 0x110434be4829aff3U,
  0xc119f6b165fe0d20U, 0xd72b23ce98ed7f25U, 0xdccd214b3546cd43U, 0x13fcd04aebb1a0b9U,
  0xca1c2a41311bf935U, 0xd8c482cc1ecaceeeU, 0xd4f4c9e1c0e7e021U, 0x388acde038ddbc10U,
  0xeba6f20069cf293dU, 0xdebc10eb8ae9efd9U, 0x5bf627e9d60cc514U, 0x1c25f007d80b0216U,
  0xd7d8f6230b4c0ff7U, 0x5ce9fc0db01d1fe9U, 0x181d08f8d7334835U, 0xebfeeae10941f863U,
  0xd0171f041ab64410U, 0x4d0dd1353e116fc8U, 0xd2d70a575ab61d21U, 0x1aff1e2007efeb52U,
  0xcfdddb4be3051bfeU, 0xbef205300fbbd9fbU, 0xe0d4efbae6ed1749U, 0x320e5602330b011bU,
  0xbb05ce1c03d304c3U, 0xf827f8da0d4c3ad3U, 0xc6f10acae7acd862U, 0xf52ef301feeb1753U,
  0xfad8f8abd7fe10f5U, 0xd0eff60fe6dbc322U, 0x39c7180481f3ff41U, 0xf14750e3e10b04f7U,
  0x161440e2cdebffe3U, 0xe715b7cff23dec0cU, 0xdafb0fb54cc0f14bU, 0x723d5f73c1112e6U,
  0xceda32d3fe12fc15U, 0xbc454220c61d4332U, 0x12e106d92918ee16U, 0xaf214e21d006da2U,
  0xe552df35f011092eU, 0x1a06d6393950d3f5U, 0x33224def233d473aU, 0x131318015df052b9U,
  0x40f81bd2c1021737U, 0x4ee7f34f03e0071bU, 0x83008f1ef122c3dU, 0xc9f4161716ff6234U,
  0xbb1616f00b3d2e01U, 0xe24bd833290be614U, 0xee3116fe1e100b0cU, 0xe1314e99e5023825U,
  0xcc18c5fae41ae341U, 0xc0ed5e713012749U, 0x4ccdaf14cffd1045U, 0xf5f233ea490c0f27U,
  0xd3e223ec17e6ca1cU, 0xcc5de8aedd7113c1U, 0x35f44deeba33946U, 0x394115f83cf118cbU,
  0x7d0fab2ff3340e4U, 0xdfe332de51f93305U, 0x232251f21c2620ffU, 0x16de56b8e8db1e02U,
  0x131822fb07153237U, 0xbc806d10cda1f10U, 0x82b1d0d2e095222U, 0x192425f36c351de4U,
  0x4ef9e40a110eb0bcU, 0xbc1af105e98a1d2cU, 0x3221de07e9031145U, 0xaed4e3de3d0e0fd3U,
  0xee13ac65e92030eaU, 0x3f2ecc2b8e57fa03U, 0x82dadb07252dd9f2U, 0x4525d8f4c3f003f8U,
  0xe8cdd10ab9d8e7a1U, 0xb6ac9a0791f34747U, 0xd726bff8daf01dccU, 0xffca13cbf1d5091aU,
  0xd9150321cf4af6e9U, 0x19ce192199cbe5deU, 0x31bd029363305faU, 0x2035e9d9f40e0be2U,
  0x2112e91b1628e1U, 0x4ffd121decbbef06U, 0xd90228c8d85f1317U, 0xba1114c321cfd2e1U,
  0x2bb40fcc00afb2c6U, 0x40bbe23d3518da19U, 0xd5ff1a8dd7c12cddU, 0xb2113e10c05e32cU,
  0x1cb299c09d5db15U, 0x1fca1147e0eb13f5U, 0x7c90825411f0408U, 0xf90a0c0ce0d5a4ceU,
  0xece1363717f2eddfU, 0x227cbed1f3afc08U, 0x1d48e1c9101beb05U, 0x4e02ae13b5130440U,
  0xef17b302da37bde4U, 0xf2d223263a2c0911U, 0xf9cf942510200705U, 0xd8132ea6dbf0f102U,
  0xcf424e90ccbcdd4U, 0xa9dabddf101bf626U, 0x18d19fd10aafb92bU, 0x34df1ff8e10d0edaU,
  0x3b43ef311f530ae6U, 0xd51f5f3e302ccbf8U, 0x9cc2f21f6325367U, 0xce092010eaf21fU,
  0xe8032c06f1f7de28U, 0x1b05fb2e2d0afe18U, 0x40fae90be2f0f838U, 0x2b073ded3f121a45U,
  0x13e2d62fd002f218U, 0x19dd3b0dfcd13beaU, 0xeff00fd932a6cfdcU, 0x2b0b10f563a421e8U,
  0xfd1043ec135a31abU, 0x1b3e694f39ca4b26U, 0xf5f12720f91e49c1U, 0xf32a7f1b230029baU,
  0x3e2efb2028f7e9d7U, 0xec381a3fda0b0e31U, 0xfd55f10f38b9ccf6U, 0xf805ea26f6d0d7d6U,
  0x149c1d1c1acf1020U, 0x200dcb0b0bf0f914U, 0x2f2f6f670a8200fU, 0xaece101735de680cU,
  0x11ecb9e7342502b8U, 0x551ddf281b08556aU, 0x5462e207fade1016U, 0x2206cb4a432d17e3U,
  0x161d6526f5f81d11U, 0xe662101c9145d49U, 0xe306ea0c24300d40U, 0xa50c06dd35d452f1U,
  0x15f804fa30162c23U, 0x204c1cbeaf6f4f4U, 0x1b1bb618f307181dU, 0xa543dcbac209bc20U,
  0x2822ec23ff38c6f2U, 0x19400a33d837eca1U, 0xefe0f3e517f661c8U, 0x26fc9bf93ff2fed7U,
  0xeed8fd17c12ee4bdU, 0x19d0eba4d202da3bU, 0xd208cef4aa460d02U, 0xc5b2cd3428c2addbU,
  0xf8332ce6bfefc309U, 0x2ffd4cfb23df38d5U, 0x10c4a9ba2e1c403cU, 0xc503b31b30d060bdU,
  0x37fd39bebbfd305aU, 0x443ae725fc28daf0U, 0x16df0b500bd7f9f7U, 0xe03309f4463445e8U,
  0x28d76e1edb1b44b0U, 0x2ed5d7c6162dca43U, 0xd6d0ced0ff080a09U, 0xf7e825ebe6052df4U,
  0xf02d3c7f8223317U, 0x31f5f10c27f9c8d4U, 0x11e0f14308c7d71dU, 0x13d7fa25f74ce924U,
  0xec0fe03d1fbed7e8U, 0xbac6ef02eaec18fcU, 0xf0d5d3d1d61b2afcU, 0x43ad1305c1d9d20dU,
  0x3d0af2e0e822e110U, 0x2810b0d8d91ae92bU, 0x380606040deed9d7U, 0x4221d83a4e034eedU,
  0xcf4ef61e9e2dd6afU, 0xc9bc3224c544ffd1U, 0x5d6e4261060e508U, 0xc6f3bc34d8efa6e6U,
  0xbf4845f8e61cb434U, 0x19bff9140de52629U, 0x313475200f0d015U, 0x1b1bd4e320d4ecefU,
  0xfbf706222f3e15e8U, 0x5266fe4e0f9fe1eU, 0xef453628d6d23b07U, 0xe91febf3061134dbU,
  0xe6fc053207caabfcU, 0xe2aef9f31a5fdff3U, 0xad243b2d3bd61404U, 0xe4eda4490ab2d49bU,
  0x12caec0148eef9f2U, 0xf5dd131cce8137f3U, 0x18af512e0904baf5U, 0xd6f303dbc7dc0437U,
  0xcbcc0949f717ef1eU, 0x1e9bd2d7cbf7fbe1U, 0xaeaa3a15c4284038U, 0x17eb1d1ad522a70aU,
  0x29cacdf82df6d0c7U, 0xf80215e6c2c8d0e2U, 0x4d642ec43cb25b5U, 0xc021c0d3f2c6ba0dU,
  0x2be3e608081014e3U, 0x23fcdbf90a0141b5U, 0x28162347a6d3f9fdU, 0x34fd2f0b52ee5b02U,
  0x2eca240c211f042bU, 0xd4db312bd918b6e6U, 0xc7dafe07ea06bbbaU, 0xbd72b3ddc2a18d1U,
  0x1ab5fc32e6d8e5fdU, 0x28e6cbd51e41f39bU, 0x49f2b6309511f0eeU, 0xc9d5094d413ed963U,
  0xc1c5d040dcf103fbU, 0x36e6401e0feec2fcU, 0xd2c9fb2c1bd4f1a0U, 0xead23bd1ee2502d0U,
  0xd3e6fa2ac1113d09U, 0xe515bc31b11e3120U, 0x1a18f7dee02d1fc4U, 0x4a2612312452010aU,
  0x1f07f0110605f502U, 0xb60a2452dbf1c410U, 0xebf403ddcd21d9e4U, 0xfb2be3024002ce24U,
  0x412dca1835fbc6ccU, 0xa212b3ec29f80620U, 0x12d92bd2aa1d1038U, 0xd8ddd411a9d4f30cU,
  0x1d96e304f34d19f4U, 0x2f2affc1d6a958e7U, 0x4cc8ca1415a5d4e4U, 0xfca0ca1abcc3d13U,
  0xebe44af9edddac1fU, 0xff9dd806eb10dff2U, 0xfbca14eae03c5c5aU, 0xe3f3fcc9dec5aff0U,
  0xfcc71e9af8571f41U, 0xfbbe3324afc3e824U, 0x3bef49f320aff0c8U, 0xf2059ce9d89ced3bU,
  0xcc141209e7cce2efU, 0xe79e062439e6fdf5U, 0xd02e15d106f34aeaU, 0xfe2ea9e30cef1eU,
  0x292635812a1efde5U, 0xdb2d560011065310U, 0xf143f4b54227fe2eU, 0xf3b314d911fd1214U,
  0xc3addde4e40d35d6U, 0x511edf19f330a0dU, 0xf750ba2deec3a8caU, 0xed09e7dbcb18e42fU,
  0xb4d2122ebbbed4efU, 0xdcb24defd8ffe94aU, 0x1bdfa6c1ac35b83eU, 0xae15d50323e3230aU,
  0xf0d6ff210c0cb92dU, 0x7bbd1ece85e0316U, 0xafe17feb3280dd9U, 0xd2ca232bff084a29U,
  0xd8d9ec052206f8ddU, 0xf7064a2242c29902U, 0xf1d6c5241217232aU, 0x53a3eb01df339aaU,
  0xed3371ce0c02d11U, 0x9f21d6ecf3f1171dU, 0xd358c7c7e7242008U, 0x2bf5f84803d432e5U,
  0x1331b319b40be0d0U, 0x21e210390542b902U, 0xf1d3f0e10dfe5515U, 0xcfebfdd441daf72cU,
  0xe90133ec08fecc20U, 0xc90fd6b2dc9fed2fU, 0xbab543c1bcd93d41U, 0x4d172601f927150dU,
  0x3dec0a1243ff02e1U, 0xd3904a906a830dbU, 0x1f0ae8f3d01bc6f1U, 0xf7141c16f2dbceefU,
  0xe3b06613f02d1aecU, 0xa9fa12d453201601U, 0xd1be4922fdff2bdeU, 0x5dcb3dbcda1ce7c4U,
  0x1ae3eac04adacb12U, 0x60fa3dd8ed319c3U, 0x39dcddb907a5d22fU, 0x14f6c2e9f31ffa46U,
  0xccdf47db40192523U, 0xfedfffd2ddc8e2e8U, 0x32cd2ec9333f1d26U, 0xeb23cdb2cae51419U,
  0xda07e7bd30cfe5e4U, 0x291fafe40ac2ffeeU, 0x50ede8dde8e33406U, 0x12f531e6ecc8d06aU,
  0x27e028f1390d44f5U, 0x18e9dbc948ebf8daU, 0x32f62439d7d4122dU, 0x4ff1e9efd20418fcU,
  0xfcd53d8109aa140dU, 0x1b4259db71ea1921U, 0xd140daddbd02aadcU, 0xfa2cf546e6e8e052U,
  0xdb0436b70c5cb0e3U, 0xc1ec0fbf2ee1fad2U, 0x1fd00a4028bb074bU, 0x10e91734eac9ff1cU,
  0xbcc608fc09a1bbdaU, 0xcacffbfe39441beaU, 0xa302f6cef32bd902U, 0xe6262b06f9403a16U,
  0xf5f020f5b1455ef2U, 0x2ef3e0e3d9d3c7d6U, 0x2acccbf7dba97402U, 0x26edbe2919ffc3ccU,
  0x20b1d210dec52dcaU, 0xcc04069708e363c0U, 0x45024a18dfb3d2caU, 0x2cea16292e4de2d5U,
  0x91b1d7c5b123efd4U, 0xfb043227e2b6f7e1U, 0x1de4170c013bfdeaU, 0x5c5b2d5c1615d8f7U,
  0x2000d41e4b8ae604U, 0xe19ce5c8fba23abdU, 0xb6b45acf36c01d92U, 0x3bc40c37f356f7f1U,
  0xfc01f008243bf3e9U, 0xe114041e14acffd0U, 0x33e0daa2103ab804U, 0xd834c806f222151dU,
  0x2508c21be6be170cU, 0xc30022b11f07ec05U, 0xe74df91540f6e3ebU, 0x47fe090a3d4fa92cU,
  0x3c1d2714d5b7e1a3U, 0x33a5240c37c42fb4U, 0xf505161d352de64fU, 0x1915d2e912c7e9eeU,
  0xf1f5fd1ff8cffd2dU, 0xbc4ea0cba2a38ebU, 0xdeddf40dc52533ceU, 0x2bd200cecced0f0eU,
  0x38430de807000cf9U, 0x1fe9e7dcfef236e6U, 0xd634300634a00c8U, 0xd6fdb6354db2ccf3U,
  0x6cde69fc022091eU, 0xbaa854f50f3f1dd2U, 0x87de38ab0efed52fU, 0x40ef4c34d8eaeffbU,
  0x2d8092f11ee210dU, 0xf8b62ad118d7f5a0U, 0x1bdff92f044e0e1cU, 0xd6d50d164d232bc1U,
  0xfaea0124a90aaa3dU, 0xc10e2db650e0b215U, 0x9bbb2adabefe219fU, 0x2bd61a03d5d5fabcU,
  0xfd13f546ff1ff12dU, 0xccd8dc1cc8064021U, 0xe8da5af120f91000U, 0xdc022203561e23ceU,
  0xc6da18f404ccdb10U, 0xb5dfa9debe3adeebU, 0xeef4c4ebfad422e6U, 0xa7e8ecccc04edb22U,
  0x332d1a292df1f948U, 0x4806f8b030a9d114U, 0xb4e3150be117da1aU, 0xee221c03e8141726U,
  0xd850f3e4efec3ce1U, 0xf032b7d2f50a0dc2U, 0x500003dbd5efdb4cU, 0xfbf6eaf10210d6f6U,
  0xee645c724ffc5f8U, 0x1f3fbeb1fc1eeedU, 0x20b5e6cdde0409feU, 0x294130152b25c6e2U,
  0x23dd56afbeff31c8U, 0x2c4116e5d11123b0U, 0xd8f71e9cd4d6fd15U, 0xe0cbf3dbd2f80903U,
  0x41331c6facfefc9U, 0xc74bf3cf11aaf4d9U, 0x3eea29fdf90b0008U, 0xe7e6272a33f6011bU,
  0x35e54d18cdc60ce2U, 0xf247e4d6e1e505d7U, 0x372e33f2e3c6ff57U, 0x2bd1efcbe021defcU,
  0xf1281f992ef736eaU, 0x3750240d2ed1dbf1U, 0x27e7e9bf112605c2U, 0xc766e91b030943eaU,
  0xc70505a8c70145f1U, 0xfc2f00938eaf6f8U, 0xe74006191adde2d6U, 0x2d33192d1d1fdaecU,
  0xd632eb0ae2d40e02U, 0xfd8ddd9f72c9bcaU, 0xdcf5e2e2140c03faU, 0x4634c807e20b4bU,
  0x11a2bc616e111e2U, 0x3321cfcefd55dcf8U, 0xd00cfefacbd317eeU, 0xfd1df1fcd0050009U,
  0xeb3c97d92dfdf0ebU, 0xc91617d806c0540aU, 0xe9b7f0e5c61d07f9U, 0x1eef2d1313ce0436U,
  0x3832d5a128bdeddbU, 0xde0c9e3f43229faU, 0x3529e3fcd0e23af2U, 0x2806262ffdf615deU,
  0x27faeb0723d82306U, 0x262743582537c4d2U, 0xea0a442ffc01c3b5U, 0xdaf6222d2de70bdcU,
  0xd509391ff20e52b1U, 0xe5d505efe1262e37U, 0x1dd82e1e0b32231bU, 0xd9eae3fc0cfd0602U,
  0xe8c2209cf5e3e1b6U, 0xf9f5e4ba12e6b5f1U, 0x157fcacd21f0b5d4U, 0xff32b1dee30f1206U,
  0x11fe6efe62923d1U, 0x1cce0a1d231e2f47U, 0xf18d5104d45560fU, 0xf0fe540a43d9d600U,
  0xdd01eafa03dcedd7U, 0x2ace1100d016d328U, 0x1e3416f5d92bd7bbU, 0x1d13fe2d1adb32ceU,
  0xda0b1026e4f81ad0U, 0xf2b2e10b331b0504U, 0xf54ac0ed1cf0ff15U, 0xe6ead3ec1d00d7d2U,
  0x2ac2eade372efc04U, 0x3128f933452ffa1dU, 0xd831e7c330b0eebaU, 0xf346bc03d8db3216U,
  0xebce142c0a1bf2d7U, 0xded7ca01e43ec8f6U, 0x304c063035d82f27U, 0x2542ead61504c6eeU,
  0x717e317b6d260c2U, 0x15b0272d2f14e017U, 0xfaf4e9cbceec20bfU, 0xd753c1ff154e0a02U,
  0xee2ee4aa413d11e6U, 0xe036d42815de1435U, 0x470212cc14160012U, 0xbb1f583c4cf2f7e4U,
  0x299c00dfffec2c09U, 0x13d1072ebf1316adU, 0x14013a0adf0abfb9U, 0x43c1c51120384535U,
  0x230adc093a211b40U, 0xe1290ff4b612fdU, 0x23bea9f5d23fc6cdU, 0xb0046d6a8100932U,
  0xbeeb164f40e7ea0bU, 0xc1c4210848dde75fU, 0x80014c404c5dd35U, 0x492103fef3cbef4dU,
  0x3603baf3f423cb03U, 0x251efbd9b523f2fdU, 0xd44acbce1102e61bU, 0x180ccb24f10f1c16U,
  0x11c209f837c50b32U, 0xd0402b720cfbf1bU, 0xc52425ee0cf2fce8U, 0xec07c841aac42a3eU,
  0xe7c63bca143b0c72U, 0x2aea411b1e0a26dcU, 0x5d1fd137110131c0U, 0x230b0307fceefce9U,
  0xc820ef514f262131U, 0xcce73524310ed90eU, 0xea2dd5cdeb396b0bU, 0x1a3006c1255bc3e1U,
  0xfb8cb12c408a74fU, 0xbdcd561eebb52122U, 0x22c5e8025d351dcaU, 0xe120f209f1e20e2fU,
  0x1bfb1101e00b22cbU, 0xcdd3f1017f4c401cU, 0x3121f0c11e1ef147U, 0x142ecc2545f86eebU,
  0x43df63517eaf441U, 0xcfe9da37b845d9f4U, 0xf6f3cf19374d4095U, 0xbc04c0081fd503deU,
  0xd16362fddf636b9U, 0xbfd084fd00411b6U, 0x2412930ff90504e7U, 0xbc39a6f3ece9e55eU,
  0x52d3db080c2e1947U, 0x56f50833c4d7e6d7U, 0xde8bb5518d5e42fU, 0xfdd518fae60c2cc9U,
  0xdf0947e62305d536U, 0xc7f2d4d119da48bdU, 0xfb24cce6e637d91bU, 0x2cf7163ffe740545U,
  0xe4c4c2010937acf6U, 0xe84a2902e8ffce36U, 0x46012cf6d8febb03U, 0xd80ecbf2f52a2aebU,
  0x276c7f36b02d1ae8U, 0xf2b3d83031fbd30aU, 0x33ec29def5022307U, 0x3037eb4555d9fba0U,
  0x56d51636054ee72aU, 0x62d15362b33d945U, 0xc9c9fb4c17dce1d1U, 0xf636f432ec7262e1U,
  0x1d474426a3d6e307U, 0x1e9a16cc12bbadb4U, 0x95380b61afd03ed2U, 0xfebafb0a152bb031U,
  0xcc19c2c146110aefU, 0x381e6826e6e410e0U, 0xcfdfccf2b6580fc5U, 0xcc229f19f15a4ec6U,
  0x13f2b423c4040ef4U, 0xcb83632bf09fee8U, 0xb4030e1623c3ecd1U, 0x7fcfeb6fdf01433U,
  0x9e7b2fa0f0505f1U, 0xc5f9ebf8dfdf09e5U, 0xed05cede0a11b82aU, 0xfaac6d2def0b4d1U,
